{
  "input_sequences": [],
  "inputs": [
    {
      "name": "node_0",
      "variables": [
        {
          "name": "HLT_MET_cell.met",
          "offset": 0,
          "scale": 1
        },
        {
          "name": "HLT_MET_cell.sumet",
          "offset": 0,
          "scale": 1
        },
        {
          "name": "HLT_MET_mhtpufit_pf_subjesgscIS.met",
          "offset": 0,
          "scale": 1
        },
        {
          "name": "HLT_MET_mhtpufit_pf_subjesgscIS.sumet",
          "offset": 0,
          "scale": 1
        },
        {
          "name": "HLT_MET_pfopufit.met",
          "offset": 0,
          "scale": 1
        },
        {
          "name": "HLT_MET_pfopufit.sumet",
          "offset": 0,
          "scale": 1
        },
        {
          "name": "HLT_MET_pfsum_vssk.met",
          "offset": 0,
          "scale": 1
        },
        {
          "name": "HLT_MET_pfsum_vssk.sumet",
          "offset": 0,
          "scale": 1
        },
        {
          "name": "HLT_MET_tcpufit.met",
          "offset": 0,
          "scale": 1
        },
        {
          "name": "HLT_MET_tcpufit.sumet",
          "offset": 0,
          "scale": 1
        },
        {
          "name": "HLT_MET_trkmht.met",
          "offset": 0,
          "scale": 1
        },
        {
          "name": "HLT_MET_trkmht.sumet",
          "offset": 0,
          "scale": 1
        }
      ]
    }
  ],
  "layers": [
    {
      "activation": "linear",
      "architecture": "dense",
      "bias": [
        -1.1316646337509155,
        -0.9265194535255432,
        -1.966616153717041,
        -0.637531578540802,
        2.708404302597046,
        2.7798094749450684,
        -0.004552008118480444,
        0.32846203446388245,
        0.5218332409858704,
        -0.4466286897659302,
        -1.027145266532898,
        -0.31033486127853394,
        0.17214897274971008,
        -0.86997389793396,
        -1.1520092487335205,
        2.7354464530944824,
        0.7500821948051453,
        -1.0215559005737305,
        0.3589252531528473,
        -0.6339070200920105,
        0.3091132938861847,
        1.0709307193756104,
        0.839682936668396,
        -1.106507658958435,
        -2.731735944747925,
        -2.5797324180603027,
        2.4255611896514893,
        -2.427729845046997,
        -1.7895901203155518,
        -0.38846248388290405
      ],
      "weights": [
        -0.30265164375305176,
        -0.012211027555167675,
        0.06464085727930069,
        0.022204475477337837,
        0.018819550052285194,
        0.15881161391735077,
        -0.2911006808280945,
        0.11029832810163498,
        0.17484800517559052,
        -0.20291869342327118,
        0.09006457775831223,
        -0.05238410830497742,
        -0.1877918839454651,
        0.005804847925901413,
        -0.1367238610982895,
        -0.02918131649494171,
        -0.05433451756834984,
        -0.10371294617652893,
        0.13922223448753357,
        0.19878612458705902,
        0.037300337105989456,
        0.06939604878425598,
        0.015685854479670525,
        -0.08019553124904633,
        -0.37712258100509644,
        -0.08417019993066788,
        -0.13457997143268585,
        -0.29071539640426636,
        -0.25921469926834106,
        -0.15911899507045746,
        0.12602420151233673,
        0.2229626327753067,
        -0.056125860661268234,
        0.32548654079437256,
        -0.08919546753168106,
        0.11680279672145844,
        0.2950279712677002,
        0.008202364668250084,
        0.053634364157915115,
        0.15579356253147125,
        -0.31380417943000793,
        -0.03030560351908207,
        -0.07168776541948318,
        -0.2066146582365036,
        -0.22291864454746246,
        0.012143299914896488,
        0.4240243434906006,
        0.0342339351773262,
        0.40035611391067505,
        0.12269986420869827,
        0.25677937269210815,
        0.026767363771796227,
        0.7957327365875244,
        -0.36624398827552795,
        0.23052282631397247,
        -0.030528733506798744,
        -0.25723764300346375,
        0.16229283809661865,
        0.26909148693084717,
        -0.1440476030111313,
        0.5403962135314941,
        -0.0514846034348011,
        0.7453683614730835,
        -0.2739556133747101,
        0.8372372984886169,
        0.2545888125896454,
        0.09939981997013092,
        0.2559351623058319,
        -0.29929590225219727,
        0.09351183474063873,
        0.14073336124420166,
        -0.04716568440198898,
        0.27686476707458496,
        0.02470606565475464,
        -0.17321714758872986,
        0.1975460946559906,
        0.11904971301555634,
        0.15228834748268127,
        0.01320805586874485,
        -0.08346349745988846,
        -0.12314139306545258,
        -0.2367040067911148,
        -0.02405157871544361,
        -0.05591399222612381,
        0.12295056134462357,
        0.028475888073444366,
        0.20612764358520508,
        0.0841016098856926,
        -0.06073162704706192,
        -0.10576371848583221,
        0.033717080950737,
        0.165155827999115,
        -0.24506767094135284,
        -0.08071757853031158,
        -0.05441972240805626,
        -0.1201542541384697,
        0.12180540710687637,
        0.0066887070424854755,
        0.20129255950450897,
        -0.06352023035287857,
        0.3108695149421692,
        -0.07715893536806107,
        -0.42897388339042664,
        0.012296616099774837,
        -0.261823832988739,
        0.13268713653087616,
        0.06565845012664795,
        0.0008063448476605117,
        0.12045884132385254,
        0.006401173770427704,
        0.11823617666959763,
        0.06036270409822464,
        0.007617257069796324,
        -0.1149868369102478,
        -0.21876242756843567,
        0.01799687184393406,
        -0.02217910997569561,
        -0.0036750377621501684,
        0.09098251909017563,
        -0.021893369033932686,
        -0.17357474565505981,
        -0.0031878771260380745,
        -0.4170718193054199,
        -0.047295913100242615,
        0.1589439958333969,
        0.2692236304283142,
        -0.047857046127319336,
        -0.2045052945613861,
        0.17786075174808502,
        -0.024991260841488838,
        0.17620281875133514,
        0.08184871822595596,
        0.03516218811273575,
        -0.009432416409254074,
        -0.18551526963710785,
        -0.14125999808311462,
        0.3621615767478943,
        -0.30257928371429443,
        -0.13467592000961304,
        0.29463666677474976,
        -0.22464285790920258,
        0.23570489883422852,
        0.07934482395648956,
        -0.052808452397584915,
        0.1177217960357666,
        -0.005698293447494507,
        0.15025776624679565,
        0.0026852316223084927,
        -0.16876380145549774,
        0.017374632880091667,
        -0.12978827953338623,
        -0.028470221906900406,
        -0.04444841668009758,
        -0.013071047142148018,
        0.10228528827428818,
        0.018908077850937843,
        -0.3469323515892029,
        -0.0124993110075593,
        -0.2291812300682068,
        -0.12191824615001678,
        0.15103057026863098,
        -0.201900914311409,
        0.08047381788492203,
        0.20491810142993927,
        -0.08855506032705307,
        0.17485080659389496,
        0.2670494616031647,
        -0.025219030678272247,
        -0.07468383014202118,
        -0.05083070322871208,
        -0.07468169927597046,
        0.03248023986816406,
        -0.21055936813354492,
        0.19000425934791565,
        -0.10951080918312073,
        -0.05739792436361313,
        0.30775272846221924,
        0.00780146848410368,
        -0.10513273626565933,
        0.06833037734031677,
        0.38419121503829956,
        -0.17593266069889069,
        0.46796920895576477,
        0.16889382898807526,
        0.7308110594749451,
        -0.360390305519104,
        0.3173532485961914,
        -0.03914123401045799,
        0.35166794061660767,
        0.16712640225887299,
        0.2580260634422302,
        0.2629995048046112,
        -0.07176166027784348,
        -0.01555262878537178,
        0.39901643991470337,
        -0.18655343353748322,
        0.03533235564827919,
        0.030329784378409386,
        -0.3677605390548706,
        0.08216340839862823,
        -0.2153283655643463,
        0.13354824483394623,
        0.03776662424206734,
        0.019819172099232674,
        0.12199503183364868,
        0.019489429891109467,
        -0.2300482541322708,
        0.33678603172302246,
        -0.030610620975494385,
        -0.0076781646348536015,
        0.034325242042541504,
        -0.12235554307699203,
        0.05457472428679466,
        -0.1843482255935669,
        0.22222115099430084,
        -0.06895193457603455,
        -0.05400668829679489,
        -0.0006614821031689644,
        -0.19746972620487213,
        -0.03986451029777527,
        0.2829611301422119,
        0.0036400561220943928,
        -0.08461051434278488,
        0.0014487819280475378,
        0.03933611139655113,
        0.012798763811588287,
        0.01749233715236187,
        0.014204379171133041,
        -0.21588990092277527,
        -0.005947499070316553,
        -0.14009349048137665,
        -0.013382239267230034,
        -0.21771079301834106,
        -0.1272287517786026,
        0.33047106862068176,
        0.17242014408111572,
        0.07037178426980972,
        0.04133126139640808,
        0.08744315803050995,
        -0.06027491018176079,
        -0.21545977890491486,
        -0.02211296185851097,
        0.04000970721244812,
        0.008286003954708576,
        0.039748597890138626,
        -0.1827913373708725,
        0.16492518782615662,
        -0.08399734646081924,
        -0.10915473848581314,
        0.2285691797733307,
        0.11154761910438538,
        0.08338513970375061,
        -0.22876295447349548,
        -0.004495713859796524,
        0.29133492708206177,
        0.14983144402503967,
        0.19159117341041565,
        -0.2587394416332245,
        0.09438450634479523,
        0.11500848829746246,
        0.06730268895626068,
        0.0012488063657656312,
        -0.3090190589427948,
        -0.05076896399259567,
        0.0002059467660728842,
        0.009630070067942142,
        0.05128395929932594,
        0.044670719653367996,
        0.16036804020404816,
        -0.08670154958963394,
        0.1931929737329483,
        0.12331725656986237,
        -0.17862646281719208,
        -0.00543882604688406,
        -0.2357231229543686,
        -0.07109517604112625,
        0.04870599880814552,
        0.015286377631127834,
        -0.11835582554340363,
        0.05736527964472771,
        -0.41108766198158264,
        0.01949930563569069,
        0.3236682415008545,
        -0.17813262343406677,
        0.18469463288784027,
        0.12470405548810959,
        -0.017827291041612625,
        0.04050913453102112,
        -0.35425785183906555,
        -0.06929374486207962,
        -0.7989984750747681,
        0.07476077228784561,
        -0.4846438765525818,
        0.3238893449306488,
        -0.6186513900756836,
        -0.22312404215335846,
        0.3242034316062927,
        -0.11588653922080994,
        -0.24659664928913116,
        0.1848134547472,
        -0.15050488710403442,
        -0.03443114086985588,
        -0.666247546672821,
        -0.22633376717567444,
        -0.5092750191688538,
        -0.08550003170967102,
        -0.4852654039859772,
        0.175879567861557,
        -0.26828503608703613,
        0.2152552753686905,
        -0.13266636431217194,
        0.06659144908189774,
        0.4759571850299835,
        0.10790711641311646,
        0.3494538962841034,
        -0.3070182800292969,
        0.28440433740615845,
        0.15516360104084015,
        0.17017480731010437,
        -0.2373286783695221,
        -0.04090449959039688,
        -0.08473710715770721,
        0.31398144364356995,
        0.026803243905305862,
        -0.4069401025772095,
        0.0507887564599514,
        -0.3584311604499817,
        -0.19608068466186523,
        -0.1002931073307991,
        -0.10315851867198944,
        -0.44084012508392334,
        -0.085746169090271,
        -0.2641512453556061,
        0.32749706506729126,
        -0.1068006157875061,
        0.041156526654958725,
        0.08638958632946014,
        0.021272366866469383,
        -0.2506415545940399,
        -0.005117172375321388,
        0.1146790087223053,
        0.04766347259283066,
        -0.018462173640727997,
        -0.17192836105823517,
        0.24178826808929443,
        -0.04307711496949196,
        -0.023771410807967186,
        0.064423106610775,
        0.04366778954863548,
        -0.005701765418052673,
        -0.3646185100078583,
        -0.01843668520450592,
        0.05540518835186958,
        0.07244496792554855,
        0.16682963073253632,
        0.1091579869389534,
        -0.015017294324934483,
        -0.11131279915571213,
        0.04229557886719704,
        -0.039532631635665894
      ]
    },
    {
      "activation": "linear",
      "architecture": "dense",
      "bias": [
        0.2527845501899719,
        -0.04765342175960541,
        -0.2690200209617615,
        0.1617746353149414,
        0.3816196024417877,
        0.7895936369895935,
        0.3732336759567261,
        0.15011213719844818,
        -0.3362143933773041,
        0.5183694362640381,
        -0.5243311524391174,
        0.9978695511817932,
        -0.28230342268943787,
        -0.09888724237680435,
        0.17011193931102753,
        -0.21027871966362,
        0.24151290953159332,
        -0.15979507565498352,
        -0.371512234210968,
        0.15314729511737823,
        -0.17496520280838013,
        0.7489199042320251,
        -0.07923287153244019,
        0.17751310765743256,
        0.11354903131723404,
        -0.3108905553817749,
        -0.18047016859054565,
        0.462195485830307,
        0.4662562608718872,
        -0.3685440421104431,
        0.3739996552467346,
        0.3639829158782959,
        -0.05948638170957565,
        -2.2033557891845703,
        0.16853676736354828,
        0.507104218006134,
        -0.3891485035419464,
        0.9503965973854065,
        0.27747270464897156,
        0.6865934133529663,
        0.4227924644947052,
        2.3804171085357666,
        0.7728611826896667,
        -0.3616206645965576,
        2.202195405960083,
        0.30417701601982117,
        -1.1615041494369507,
        -0.4303528964519501,
        -0.6332922577857971,
        -0.6897528171539307,
        -0.08814027160406113,
        0.23069463670253754,
        3.0471558570861816,
        0.20910950005054474,
        0.8116846680641174,
        -0.3949183225631714,
        0.013780658133327961,
        2.553986072540283,
        -0.015702642500400543,
        1.1052253246307373
      ],
      "weights": [
        -0.06848831474781036,
        0.12485051155090332,
        -0.07234595715999603,
        -0.015027106739580631,
        -0.2433759719133377,
        -0.00698478240519762,
        0.06519708782434464,
        0.047491781413555145,
        0.10391946136951447,
        0.011216757819056511,
        0.03910529613494873,
        0.05957108363509178,
        -0.0616302527487278,
        0.028751453384757042,
        -0.1781005710363388,
        0.06069024279713631,
        -0.05860807001590729,
        -0.059180498123168945,
        0.0013398868031799793,
        -0.021766750141978264,
        -0.06644962728023529,
        -0.057594187557697296,
        -0.058824822306632996,
        0.055871669203042984,
        -0.06684371083974838,
        -0.10081930458545685,
        0.016500215977430344,
        0.12900647521018982,
        0.03777024894952774,
        0.015489534474909306,
        -0.015157685615122318,
        -0.07254119217395782,
        0.042503297328948975,
        0.03550543636083603,
        -0.0373750738799572,
        0.07038411498069763,
        -0.03724364936351776,
        -0.046796683222055435,
        -0.05547385290265083,
        0.03238827362656593,
        -0.11221888661384583,
        -0.06570258736610413,
        -0.03526819124817848,
        0.0018143997294828296,
        0.03555123880505562,
        -0.003229020396247506,
        -0.03205464035272598,
        0.14046114683151245,
        -0.02229009009897709,
        -0.021092621609568596,
        -0.05314178392291069,
        0.01286873035132885,
        0.032668109983205795,
        -0.039907168596982956,
        -0.1117837056517601,
        0.025435246527194977,
        -0.040297940373420715,
        0.1293545514345169,
        0.09715194255113602,
        0.004738573916256428,
        0.004309090320020914,
        0.02629132568836212,
        0.030687637627124786,
        0.016454320400953293,
        0.003095306921750307,
        -0.006117638666182756,
        0.02625250816345215,
        0.03255476802587509,
        0.003475573845207691,
        -0.06786297261714935,
        -0.04584653303027153,
        0.009760239161550999,
        0.009118704125285149,
        0.007663366384804249,
        0.06856803596019745,
        -0.0017531943740323186,
        0.005216918885707855,
        0.017318889498710632,
        -0.0026966268196702003,
        -0.018282482400536537,
        -0.004299277905374765,
        0.055454548448324203,
        0.009703979827463627,
        0.024608267471194267,
        0.05336250364780426,
        0.01679389178752899,
        0.09951908886432648,
        -0.02999863587319851,
        -0.0867851972579956,
        -0.014444943517446518,
        0.05457617715001106,
        -0.05201563239097595,
        0.008043385110795498,
        0.06353262066841125,
        0.007886081002652645,
        -0.030072439461946487,
        -0.01475920807570219,
        -0.003643397009000182,
        0.04032903537154198,
        -0.024590350687503815,
        0.016088416799902916,
        0.028698844835162163,
        -0.044028524309396744,
        0.04884146526455879,
        0.10033194720745087,
        -0.0073854695074260235,
        0.006469838786870241,
        -0.06504327058792114,
        -0.03519493341445923,
        -0.04207931458950043,
        -0.030468197539448738,
        0.02984161116182804,
        -0.04143548756837845,
        -0.04930899292230606,
        -0.06387306749820709,
        -0.029966678470373154,
        -0.03970302268862724,
        0.027836579829454422,
        0.08331578224897385,
        0.06087040901184082,
        0.011563325300812721,
        -0.03689943253993988,
        -0.06788312643766403,
        -0.010162592865526676,
        0.018104316666722298,
        -0.011835185810923576,
        -0.0027919046115130186,
        0.003705007489770651,
        -0.014119725674390793,
        0.0006793567445129156,
        -0.07933393120765686,
        0.010292664170265198,
        0.07714072614908218,
        0.15200506150722504,
        -0.008535102009773254,
        0.03869924694299698,
        0.036034971475601196,
        -0.04900311306118965,
        -0.003476181300356984,
        -0.028923850506544113,
        -0.02062038891017437,
        -0.07807488739490509,
        0.009529421105980873,
        -0.017197661101818085,
        0.05927388742566109,
        -0.16990841925144196,
        -0.07978267967700958,
        0.15420915186405182,
        0.017522813752293587,
        0.10623103380203247,
        0.07898710668087006,
        -0.061260417103767395,
        0.010123614221811295,
        0.07517825067043304,
        0.017787422984838486,
        -0.007302037440240383,
        0.0498952642083168,
        -0.05458272993564606,
        -0.023243138566613197,
        0.03469255194067955,
        0.047741908580064774,
        -0.041881609708070755,
        0.07903123646974564,
        -0.01339719444513321,
        0.07460293918848038,
        0.03554098680615425,
        -0.0500214584171772,
        -0.06854604929685593,
        -0.02279011346399784,
        0.04501520097255707,
        -0.04125421866774559,
        -0.013658133335411549,
        0.06085440516471863,
        -0.10660579055547714,
        -0.09264285117387772,
        -0.10890531539916992,
        -0.09495770186185837,
        0.22844116389751434,
        0.05180107057094574,
        0.04959391430020332,
        -0.029739275574684143,
        0.020254194736480713,
        0.021866291761398315,
        -0.05904776602983475,
        -0.17770467698574066,
        -0.08304300904273987,
        0.021873297169804573,
        0.01283696573227644,
        0.09206356108188629,
        0.05913272872567177,
        -0.0025818932335823774,
        0.03928893804550171,
        -0.01192561723291874,
        0.1112670823931694,
        -0.007873979397118092,
        -0.00024474403471685946,
        0.0530611053109169,
        -0.0500965490937233,
        -0.08336672931909561,
        -0.04769498482346535,
        0.018772657960653305,
        -0.09971056878566742,
        -0.0027334410697221756,
        0.015549757517874241,
        -0.0396374836564064,
        -0.19074994325637817,
        0.03357691317796707,
        0.03229104354977608,
        0.039933133870363235,
        0.0696515440940857,
        0.003338236128911376,
        -0.06479503214359283,
        -0.004671168047934771,
        -0.05479653552174568,
        -0.05742555856704712,
        -0.011269979178905487,
        0.02714080736041069,
        0.05248197540640831,
        0.007646034937351942,
        0.03672071546316147,
        0.03360800817608833,
        -0.025593025609850883,
        -0.04353351891040802,
        -0.03551037237048149,
        0.03761584684252739,
        0.0004723674210254103,
        -0.013342101126909256,
        0.04002871364355087,
        -0.007366701029241085,
        0.03153947368264198,
        -0.000534453138243407,
        -0.04864362254738808,
        -0.03477427363395691,
        0.024799006059765816,
        -0.17363114655017853,
        0.16047996282577515,
        -0.016487356275320053,
        -0.06124287471175194,
        0.09771355986595154,
        -0.0816037580370903,
        0.008232193998992443,
        -0.04042423516511917,
        -0.07494091987609863,
        -0.056080885231494904,
        0.024284623563289642,
        0.020614387467503548,
        0.007763440255075693,
        -0.07428344339132309,
        -0.0386819988489151,
        0.037705037742853165,
        -0.03756355866789818,
        -0.06772083044052124,
        -0.003736128332093358,
        0.051820095628499985,
        0.007330626714974642,
        -0.0296956617385149,
        -0.03679099678993225,
        0.01840399205684662,
        -0.005692696198821068,
        -0.02864118479192257,
        0.04990243911743164,
        0.009531253948807716,
        -0.03085240162909031,
        0.06892329454421997,
        -0.07509087026119232,
        0.17731793224811554,
        -0.02668815664947033,
        -0.11811380833387375,
        9.024571045301855e-05,
        -0.07051882892847061,
        0.024364693090319633,
        0.03073781542479992,
        0.12795938551425934,
        -0.03328067064285278,
        -0.1930033415555954,
        -0.048340655863285065,
        0.04418767988681793,
        -0.02675134316086769,
        0.0279697235673666,
        0.04736781865358353,
        -0.03123992308974266,
        0.007512905169278383,
        0.06950290501117706,
        -0.04794817417860031,
        0.03075777180492878,
        0.0017119343392550945,
        -0.05901975557208061,
        0.05773380771279335,
        -0.04096778854727745,
        -0.03388486057519913,
        0.015352989546954632,
        -0.07617955654859543,
        0.09019758552312851,
        0.029283398762345314,
        -0.1442733258008957,
        -0.08686544001102448,
        0.08516807109117508,
        0.08266139775514603,
        -0.016342367976903915,
        -0.0046197944320738316,
        -0.07751163095235825,
        -0.007459970656782389,
        0.07749976217746735,
        -0.031237851828336716,
        -0.028766635805368423,
        0.05350998044013977,
        -0.028662512078881264,
        0.013984782621264458,
        0.06539448350667953,
        -0.0037301022093743086,
        -0.06816066801548004,
        0.1324947029352188,
        0.13969428837299347,
        -0.004172851797193289,
        -0.04883342608809471,
        -0.054746437817811966,
        -0.06597655266523361,
        0.10685315728187561,
        -0.05589477717876434,
        0.10314015299081802,
        0.08892807364463806,
        0.03662393242120743,
        0.07151686400175095,
        0.05028293654322624,
        0.2253480702638626,
        -0.11739218235015869,
        0.15051493048667908,
        -0.057402268052101135,
        -0.13231204450130463,
        -0.045473676174879074,
        -0.1506364941596985,
        0.07487531006336212,
        0.047585681080818176,
        0.062316179275512695,
        -0.18689486384391785,
        0.013928143307566643,
        -0.07399438321590424,
        -0.009835912846028805,
        -0.05861120671033859,
        0.046332795172929764,
        0.011675712652504444,
        -0.01042991504073143,
        0.06279492378234863,
        0.018328357487916946,
        -0.15023264288902283,
        -0.06462704390287399,
        -0.014816581271588802,
        0.013002214953303337,
        0.07909826934337616,
        -0.1313427835702896,
        0.05363801494240761,
        -0.026525311172008514,
        -0.08999928086996078,
        -0.031329259276390076,
        -0.19759459793567657,
        -0.13310380280017853,
        -0.15442083775997162,
        0.05372174084186554,
        0.19814760982990265,
        0.04112490639090538,
        -0.023375464603304863,
        -0.010788403451442719,
        0.007424801588058472,
        0.03280271962285042,
        0.03793996572494507,
        -0.0064429668709635735,
        -0.07877340167760849,
        -0.006035907659679651,
        0.07871945202350616,
        -0.027023853734135628,
        -0.0004008550604339689,
        0.005290566012263298,
        -0.0007119434303604066,
        0.061917148530483246,
        -0.014893598854541779,
        -0.03396254777908325,
        -0.029510406777262688,
        -0.0881391316652298,
        -0.03259238973259926,
        0.022787218913435936,
        0.03321322798728943,
        -0.011469729244709015,
        0.0006900329026393592,
        -0.04857411980628967,
        0.08588970452547073,
        -0.10091447830200195,
        -0.03236716613173485,
        -0.038437772542238235,
        0.011158499866724014,
        0.06370587646961212,
        -0.08259269595146179,
        0.10965095460414886,
        0.03475230932235718,
        0.04479403793811798,
        -0.014016714878380299,
        0.12566818296909332,
        -0.04545396566390991,
        0.052198395133018494,
        -0.07763123512268066,
        0.10235913097858429,
        -0.0603146068751812,
        -0.024499379098415375,
        0.04487165808677673,
        -0.041570715606212616,
        -0.07909887284040451,
        0.005148256663233042,
        -0.0008319515036419034,
        0.07384219765663147,
        0.011600593104958534,
        0.09643914550542831,
        -0.001308684702962637,
        0.10370644181966782,
        0.03511539101600647,
        -0.03931425139307976,
        0.24059389531612396,
        -0.1268332302570343,
        0.10882367193698883,
        0.12665687501430511,
        -0.0625932589173317,
        0.012199285440146923,
        0.002149987267330289,
        0.05454634502530098,
        0.07686508446931839,
        0.051115985959768295,
        -0.1397884041070938,
        0.0269699078053236,
        0.016260653734207153,
        0.009720263071358204,
        0.037869296967983246,
        0.03441177308559418,
        -0.06481244415044785,
        0.08118835091590881,
        -0.0041037979535758495,
        -0.06541917473077774,
        0.00818037148565054,
        -0.05253427475690842,
        -0.07203100621700287,
        0.06554955244064331,
        0.03934381902217865,
        0.029939334839582443,
        0.14759980142116547,
        0.059788428246974945,
        -0.030294785276055336,
        0.06214838847517967,
        -0.03928625211119652,
        -0.06592297554016113,
        0.07503630220890045,
        0.016420556232333183,
        0.024770261719822884,
        0.007594700902700424,
        -0.02221248298883438,
        -0.04956202581524849,
        -0.1578037440776825,
        0.07115732133388519,
        -0.04539019614458084,
        -0.05444815382361412,
        -0.0844186544418335,
        -0.018534531816840172,
        0.014605363830924034,
        -0.07238293439149857,
        0.08290141075849533,
        0.07361835986375809,
        -0.07081180065870285,
        0.1390482634305954,
        -0.038490086793899536,
        0.009472894482314587,
        -0.0018369093304499984,
        -0.1804519146680832,
        0.008440030738711357,
        -0.005808381829410791,
        -0.08465078473091125,
        -0.007254653610289097,
        0.0385393425822258,
        0.03546531870961189,
        0.030140763148665428,
        -0.003973402548581362,
        0.0009806351736187935,
        -0.08829918503761292,
        -0.09206201136112213,
        -0.03795957192778587,
        -0.015105297788977623,
        -0.12285689264535904,
        0.11750388890504837,
        0.01867690496146679,
        -0.001671818783506751,
        0.0003258317010477185,
        0.05387793108820915,
        0.0471327006816864,
        -0.031289082020521164,
        0.004264161456376314,
        -0.03680690377950668,
        0.026850011199712753,
        -0.005939163733273745,
        0.033318839967250824,
        0.0030948100611567497,
        -0.021604368463158607,
        0.052944984287023544,
        0.012511396780610085,
        0.009231574833393097,
        0.020356908440589905,
        -0.031429968774318695,
        0.0220001470297575,
        -0.05077691376209259,
        0.027849216014146805,
        0.060838352888822556,
        -0.16699787974357605,
        -0.0004441167402546853,
        0.06546960771083832,
        -0.02528618648648262,
        0.04235266149044037,
        -0.10553652048110962,
        0.043039266020059586,
        -0.05717582628130913,
        0.08324642479419708,
        -0.28718724846839905,
        0.030285624787211418,
        -0.06966124475002289,
        -0.09164250642061234,
        -0.03258805721998215,
        0.10231686383485794,
        -0.025621715933084488,
        0.08007057011127472,
        0.006595094688236713,
        0.08960171043872833,
        0.01642250083386898,
        -0.10181300342082977,
        -0.1521487534046173,
        -0.03339920938014984,
        -0.024742931127548218,
        0.019981402903795242,
        0.20725980401039124,
        0.10233043134212494,
        0.04997362568974495,
        0.03183053806424141,
        -0.032910749316215515,
        -0.08776357769966125,
        0.14318756759166718,
        -0.06032450497150421,
        -0.06762471050024033,
        -0.08471422642469406,
        0.09735087305307388,
        -0.08319581300020218,
        -0.03902633115649223,
        -0.08825044333934784,
        0.31304702162742615,
        -0.009121837094426155,
        0.018068768084049225,
        0.004724332131445408,
        0.022203337401151657,
        -0.01397620141506195,
        -0.03271571546792984,
        -0.0877504050731659,
        -0.01967710442841053,
        -0.05070202052593231,
        0.015513674356043339,
        0.023572415113449097,
        0.007423993665724993,
        -0.05852300673723221,
        0.002301889006048441,
        -0.026709219440817833,
        0.09667743742465973,
        -0.11435029655694962,
        -0.03629903867840767,
        -0.04619225859642029,
        0.13125623762607574,
        0.058556266129016876,
        -0.11858536303043365,
        -0.04018012061715126,
        -0.07395793497562408,
        0.08033290505409241,
        0.08057551831007004,
        -0.15303610265254974,
        0.13951683044433594,
        -0.01555544137954712,
        0.16322679817676544,
        -0.02847825363278389,
        -0.02062474563717842,
        0.03265783563256264,
        -0.08714018762111664,
        0.04543539136648178,
        0.031041011214256287,
        -0.038035787642002106,
        -0.014375399798154831,
        -0.08667305111885071,
        0.058024436235427856,
        -0.019545583054423332,
        -0.06281610578298569,
        -0.040211405605077744,
        -0.0036063604056835175,
        -0.01299620233476162,
        0.028923969715833664,
        -0.08959311991930008,
        -0.02940385602414608,
        -0.07408130913972855,
        0.001764903892762959,
        -0.05517978221178055,
        -0.08365089446306229,
        0.018210522830486298,
        -0.12966755032539368,
        -0.016348015516996384,
        0.0901123583316803,
        -0.09152955561876297,
        0.12675943970680237,
        -0.05435330793261528,
        0.20237907767295837,
        -0.08755268901586533,
        -0.030240893363952637,
        0.010195299051702023,
        0.12906838953495026,
        -0.056526198983192444,
        0.04162827506661415,
        0.018367666751146317,
        0.05857602506875992,
        0.006463206838816404,
        0.07220418006181717,
        -0.04257117584347725,
        0.08897577226161957,
        -0.028333580121397972,
        0.006937231402844191,
        -0.05885837972164154,
        -0.037941597402095795,
        0.015924666076898575,
        -0.08153912425041199,
        0.037391096353530884,
        0.02439684234559536,
        0.03509409725666046,
        -0.06631572544574738,
        -0.19783607125282288,
        0.003305865451693535,
        0.08234890550374985,
        0.001402409397996962,
        -0.016455601900815964,
        0.26142627000808716,
        0.06442020833492279,
        -0.026657264679670334,
        -0.07221749424934387,
        0.13952404260635376,
        0.02216350845992565,
        0.013215603306889534,
        -0.01237382460385561,
        0.008826668374240398,
        0.008845088072121143,
        0.030542990192770958,
        -0.01333562284708023,
        0.10734173655509949,
        -0.0053278072737157345,
        0.02311854623258114,
        0.0060820868238806725,
        0.025393936783075333,
        -0.028422700241208076,
        -0.13250243663787842,
        0.00045265970402397215,
        -0.06030663102865219,
        -0.051158614456653595,
        -0.05243894085288048,
        -0.174586221575737,
        0.03791206702589989,
        0.08791516721248627,
        -0.021184617653489113,
        0.011922252364456654,
        0.009699628688395023,
        0.0022420352324843407,
        -0.1350259929895401,
        -0.05715314671397209,
        -0.13114768266677856,
        -0.029992911964654922,
        -0.013037418015301228,
        -0.05446460843086243,
        -0.11537167429924011,
        0.030784398317337036,
        0.03746858611702919,
        -0.06084281578660011,
        0.0067374189384281635,
        -0.005004973616451025,
        0.16174419224262238,
        0.02000916376709938,
        -0.09029029309749603,
        0.028155159205198288,
        0.054731279611587524,
        -0.040568429976701736,
        0.11081688851118088,
        0.06573231518268585,
        0.001288995728828013,
        0.023475563153624535,
        -0.22037345170974731,
        0.22303533554077148,
        0.10903996974229813,
        -0.00826321355998516,
        -0.15055470168590546,
        -0.00863800197839737,
        0.09228648990392685,
        0.018516864627599716,
        -0.0105740400031209,
        0.00904516689479351,
        0.02982073463499546,
        -0.04607394337654114,
        0.14448736608028412,
        -0.11727456748485565,
        0.00348593364469707,
        0.037523917853832245,
        -0.004757653456181288,
        -0.05495935305953026,
        -0.04519196227192879,
        -0.06626478582620621,
        -0.033665090799331665,
        0.016583189368247986,
        0.0447586327791214,
        -0.14604076743125916,
        0.016724811866879463,
        0.05328884348273277,
        0.03233299031853676,
        0.0018276318442076445,
        -0.07954422384500504,
        0.05929821729660034,
        -0.08682682365179062,
        0.05893419682979584,
        -0.05497588962316513,
        -0.027585726231336594,
        0.018529057502746582,
        0.11185500025749207,
        -0.0238947831094265,
        0.07928510755300522,
        0.03774215281009674,
        -0.0754002258181572,
        -0.15721192955970764,
        -0.10481425374746323,
        0.05098444223403931,
        0.005434214137494564,
        0.08872399479150772,
        0.03263463079929352,
        0.07244300097227097,
        0.037677571177482605,
        -0.04420190677046776,
        -0.0049421642906963825,
        -0.07273393124341965,
        0.018591081723570824,
        0.10950282961130142,
        -0.0001925387477967888,
        -0.018842875957489014,
        -0.05684458836913109,
        -0.05449218675494194,
        -0.04542650654911995,
        0.10777203738689423,
        0.18561655282974243,
        -0.0934288278222084,
        0.039557915180921555,
        0.09961117804050446,
        -0.13060742616653442,
        -0.06388179212808609,
        -0.011720998212695122,
        -0.06231682375073433,
        0.10565437376499176,
        -0.11030972003936768,
        0.07630607485771179,
        -0.14891237020492554,
        -0.025392433628439903,
        -0.039817556738853455,
        -0.01858220249414444,
        0.014282618649303913,
        -0.03473564609885216,
        0.07936125993728638,
        -0.01922474429011345,
        0.0073280902579426765,
        -0.01901618018746376,
        0.004598906263709068,
        -0.010958041064441204,
        -0.015898222103714943,
        -0.02559010311961174,
        0.08943182975053787,
        -0.02078738808631897,
        0.04087869077920914,
        0.11799394339323044,
        0.05184641480445862,
        0.08513601869344711,
        -0.18006598949432373,
        0.14697596430778503,
        0.02848581224679947,
        -0.08238042145967484,
        0.022242337465286255,
        0.029820669442415237,
        0.009820625185966492,
        -0.03234092891216278,
        -0.015428018756210804,
        -0.036748237907886505,
        0.1707300990819931,
        -0.05637340620160103,
        0.026321761310100555,
        -0.04236232116818428,
        -0.023311112076044083,
        -0.07746758311986923,
        0.0018174981232732534,
        -0.017223622649908066,
        0.013103545643389225,
        0.012596188113093376,
        -0.0050202589482069016,
        0.014515584334731102,
        0.06069032475352287,
        -0.06469856947660446,
        0.03412541374564171,
        -0.0058040679432451725,
        -0.045443665236234665,
        -0.055115070194005966,
        -0.01972188800573349,
        0.030400196090340614,
        0.06408688426017761,
        0.05458146706223488,
        -0.04764413461089134,
        -0.1041078269481659,
        -0.11400163918733597,
        0.018247706815600395,
        0.000824819493573159,
        -0.08473856747150421,
        0.0909312516450882,
        0.008716455660760403,
        -0.015530175529420376,
        0.06072121113538742,
        0.013160771690309048,
        -0.01102009229362011,
        -0.08558051288127899,
        0.060685284435749054,
        0.013902582228183746,
        0.032275404781103134,
        -0.034783538430929184,
        -0.0029151090420782566,
        -0.1818927377462387,
        -0.04745727404952049,
        0.01972355507314205,
        0.026596101000905037,
        -0.034018706530332565,
        -0.04750373959541321,
        0.07151413708925247,
        0.00013219683023635298,
        -0.09369668364524841,
        -0.007072758860886097,
        0.03123156726360321,
        -0.17508095502853394,
        -0.0983951985836029,
        0.09030923247337341,
        0.09633470326662064,
        -0.006825827527791262,
        -0.08796042203903198,
        0.1745705008506775,
        -0.03541253134608269,
        0.06243690475821495,
        -0.06523281335830688,
        -0.07883122563362122,
        0.042026370763778687,
        0.006640588864684105,
        0.12266682088375092,
        -0.012996966950595379,
        0.01871212013065815,
        0.13975316286087036,
        0.046181097626686096,
        0.04111160710453987,
        0.06776556372642517,
        -0.03990093618631363,
        0.038564663380384445,
        -0.11230258643627167,
        0.045587293803691864,
        -0.005096001084893942,
        0.06809323281049728,
        -0.06932496279478073,
        0.06692291796207428,
        -0.07767682522535324,
        0.06911904364824295,
        -0.11602248251438141,
        0.03520209714770317,
        -0.13368399441242218,
        0.11580709367990494,
        -0.07252155244350433,
        0.027327172458171844,
        0.020760154351592064,
        0.026910848915576935,
        -0.041012540459632874,
        -0.09302830696105957,
        -0.05386875569820404,
        -0.030429378151893616,
        0.0652303472161293,
        0.059113699942827225,
        -0.02485463209450245,
        -0.052948880940675735,
        0.0967605859041214,
        0.02125486731529236,
        0.05035768076777458,
        0.15475833415985107,
        0.005701896268874407,
        0.02444317750632763,
        0.023586660623550415,
        -0.04485277459025383,
        0.023731239140033722,
        -0.03835822269320488,
        -0.004284847993403673,
        -0.04085502773523331,
        -0.00724345026537776,
        0.04288177937269211,
        -0.07807944715023041,
        0.14574620127677917,
        0.0035938937216997147,
        -0.06326324492692947,
        0.1040344089269638,
        0.03360920026898384,
        -0.03741025924682617,
        0.1953260749578476,
        0.055449508130550385,
        0.032850660383701324,
        0.0029246159829199314,
        0.037438467144966125,
        -0.002548964461311698,
        0.04887545853853226,
        -0.023729950189590454,
        -0.06086890399456024,
        -0.033850982785224915,
        0.013047772459685802,
        -0.014901002869009972,
        0.09891460835933685,
        -0.05165611580014229,
        0.011102508753538132,
        0.1114131286740303,
        0.022070933133363724,
        -0.01972154527902603,
        -0.023262443020939827,
        0.03691630810499191,
        0.002327738795429468,
        -0.026117870584130287,
        -0.09318024665117264,
        0.010224619880318642,
        -0.019536398351192474,
        -0.01999771036207676,
        0.10522620379924774,
        -0.040401529520750046,
        -0.0005071777850389481,
        0.008965946733951569,
        0.08258794248104095,
        0.020286627113819122,
        -0.03257535398006439,
        -0.014973131939768791,
        -0.02415188029408455,
        -0.08337265253067017,
        0.086077481508255,
        -0.03316892310976982,
        -0.01123379822820425,
        0.08462826907634735,
        0.04771631583571434,
        -0.00991039164364338,
        -0.15408913791179657,
        -0.07663413882255554,
        0.061823055148124695,
        0.040030915290117264,
        -0.02866230346262455,
        -0.05666186660528183,
        0.08125512301921844,
        -0.08499044179916382,
        0.11367901414632797,
        0.048868805170059204,
        0.000905910914298147,
        -0.0901922881603241,
        -0.07684914767742157,
        -0.13105295598506927,
        0.16858763992786407,
        -0.08612189441919327,
        0.05847512558102608,
        -0.06389856338500977,
        0.10425598919391632,
        0.06041207164525986,
        0.11823389679193497,
        -0.040332186967134476,
        0.024382879957556725,
        -0.10576999932527542,
        0.013809951953589916,
        -0.10631275177001953,
        0.05941544100642204,
        0.0076113007962703705,
        -0.016995519399642944,
        -0.07580498605966568,
        -0.011109489016234875,
        -0.060771841555833817,
        0.006461681332439184,
        -0.05327961966395378,
        -0.009284080006182194,
        -0.025226255878806114,
        -0.03127424791455269,
        0.016209116205573082,
        -0.03566112741827965,
        -0.031927671283483505,
        -0.08119482547044754,
        0.03946259245276451,
        -0.13205283880233765,
        -0.1371929943561554,
        0.08273430913686752,
        -0.028830936178565025,
        -0.18114899098873138,
        -0.049240317195653915,
        -0.3156232237815857,
        -0.03060535155236721,
        -0.07877325266599655,
        -0.052582740783691406,
        -0.021966546773910522,
        0.05659632012248039,
        -0.1579202264547348,
        0.08436114341020584,
        -0.10732591897249222,
        0.20167449116706848,
        0.013311166316270828,
        0.22950059175491333,
        0.15096750855445862,
        -0.08446288853883743,
        0.2034861296415329,
        -0.184346541762352,
        0.06930004805326462,
        0.024942772462964058,
        0.3326122462749481,
        -0.04207530617713928,
        0.08591491729021072,
        0.02503211610019207,
        0.3054817020893097,
        -0.16134054958820343,
        0.18803218007087708,
        -0.20393216609954834,
        -0.19792163372039795,
        -0.051180578768253326,
        0.01328717265278101,
        0.018285078927874565,
        -0.011886507272720337,
        -0.020465902984142303,
        -0.06218073144555092,
        -0.06714694201946259,
        0.11083374917507172,
        -0.03411075845360756,
        -0.07425515353679657,
        -0.05488333851099014,
        0.022856764495372772,
        -0.04892228543758392,
        0.04367520660161972,
        -0.02247420698404312,
        0.10187174379825592,
        0.04108588770031929,
        0.0002480832627043128,
        -0.04036693274974823,
        0.011066306382417679,
        -0.03152073919773102,
        -0.07018739730119705,
        -0.020527349784970284,
        0.006639663130044937,
        -0.04043802618980408,
        -0.20709507167339325,
        0.05840152129530907,
        -0.02700895071029663,
        0.07259152084589005,
        -0.009645245969295502,
        -0.03599516302347183,
        0.06476500630378723,
        -0.11323872208595276,
        0.18609456717967987,
        -0.04783841222524643,
        0.11709344387054443,
        -0.04970284923911095,
        0.12440607696771622,
        -0.02612566575407982,
        -0.11703058332204819,
        0.013594445772469044,
        0.12262319773435593,
        -0.06321974098682404,
        0.05914568156003952,
        -0.08341141790151596,
        0.025082672014832497,
        -0.01868029125034809,
        0.005552654154598713,
        0.02630193717777729,
        0.006668005604296923,
        -0.07276331633329391,
        -0.012090911157429218,
        0.04056606441736221,
        -0.0660366639494896,
        0.03960143029689789,
        -0.08589962869882584,
        0.05444973707199097,
        -0.029402796179056168,
        -0.04846227169036865,
        -0.14350010454654694,
        -0.03696158155798912,
        0.06971767544746399,
        -0.034431904554367065,
        -0.06091877445578575,
        0.0018444574670866132,
        0.14540982246398926,
        0.04682540148496628,
        -0.0240333192050457,
        -0.058459244668483734,
        -0.12059523165225983,
        -0.010398541577160358,
        0.02217041328549385,
        -0.01894613355398178,
        0.010695288889110088,
        -0.06207180768251419,
        0.07508019357919693,
        0.042280323803424835,
        0.02299271896481514,
        0.12992635369300842,
        0.009826473891735077,
        -0.035646114498376846,
        -0.07847527414560318,
        0.10370423644781113,
        0.046251874417066574,
        0.028301941230893135,
        -0.03764574974775314,
        0.23602266609668732,
        -0.0020835811737924814,
        0.018163762986660004,
        -0.08262869715690613,
        0.006669727619737387,
        0.10408580303192139,
        0.10932043194770813,
        0.139207124710083,
        0.01670892722904682,
        -0.13034118711948395,
        -0.04832630604505539,
        -0.038470301777124405,
        -0.03662778064608574,
        -0.021971164271235466,
        -0.05708911642432213,
        -0.05906020849943161,
        -0.028788113966584206,
        0.017152385786175728,
        -0.07117393612861633,
        0.04944200813770294,
        0.04677506163716316,
        0.032621968537569046,
        0.11344549059867859,
        -0.0019202729454264045,
        0.037145912647247314,
        -0.13135778903961182,
        -0.029259663075208664,
        0.10921893268823624,
        -0.006993909832090139,
        -0.08138507604598999,
        -0.0879027396440506,
        0.10748466104269028,
        0.13219696283340454,
        -0.015823334455490112,
        -0.03328995779156685,
        0.07404780387878418,
        -0.05645320191979408,
        0.0021896890830248594,
        -0.012983281165361404,
        -0.048609405755996704,
        0.04436316713690758,
        -0.003516486845910549,
        -0.0013333982788026333,
        0.02163102477788925,
        0.06646731495857239,
        -0.10564445704221725,
        0.0483274981379509,
        0.04286450892686844,
        0.0008359933272004128,
        -0.05492035299539566,
        0.00890811812132597,
        -0.022181153297424316,
        -0.018406646326184273,
        -0.0017337978351861238,
        0.11182127147912979,
        0.10138911008834839,
        -0.06730418652296066,
        0.026857739314436913,
        0.015601512044668198,
        0.16851301491260529,
        -0.2104375660419464,
        0.06142444163560867,
        0.14509055018424988,
        -0.025889964774250984,
        0.07919783890247345,
        0.0656357854604721,
        -0.01610310561954975,
        0.07720756530761719,
        0.08064857870340347,
        -0.15546190738677979,
        -0.049289505928754807,
        -0.08165201544761658,
        0.0604073666036129,
        0.014499704353511333,
        -0.07230865955352783,
        -0.09705163538455963,
        0.07428821176290512,
        -0.043741267174482346,
        0.046732258051633835,
        0.1016564890742302,
        -0.02431918866932392,
        -0.04591758921742439,
        -0.05083856359124184,
        0.06927859038114548,
        -0.0005735093727707863,
        0.02969357743859291,
        -0.023218946531414986,
        -0.0387856625020504,
        -0.02884228713810444,
        0.02000008523464203,
        -0.27219465374946594,
        0.08852948993444443,
        0.11631433665752411,
        -0.05161162465810776,
        0.03394569084048271,
        -0.03634262830018997,
        0.042157869786024094,
        0.035664238035678864,
        -0.08059030026197433,
        0.09766920655965805,
        0.0006336720543913543,
        -0.028355617076158524,
        0.021804993972182274,
        -0.037056732922792435,
        0.0051519800908863544,
        0.053470075130462646,
        -0.06396684050559998,
        0.1301880031824112,
        -0.016190363094210625,
        -0.09521185606718063,
        0.05647078901529312,
        -0.04212946444749832,
        0.008944742381572723,
        -0.06920044124126434,
        -0.0839959904551506,
        -0.08274602890014648,
        -0.0638936311006546,
        0.0027471950743347406,
        -0.0707080140709877,
        0.0981825441122055,
        -0.15353596210479736,
        -0.06780073791742325,
        0.16908803582191467,
        -0.11111282557249069,
        0.09648322314023972,
        -0.08862204104661942,
        0.0026783610228449106,
        0.30450156331062317,
        -0.013836858794093132,
        -0.05616201460361481,
        -0.044037826359272,
        0.18036551773548126,
        0.1979004144668579,
        0.1005992591381073,
        0.176610067486763,
        0.037326544523239136,
        0.07541286945343018,
        -0.1215759888291359,
        -0.04137861356139183,
        -0.20118175446987152,
        -0.003805442014709115,
        -0.0028903656639158726,
        -0.06533518433570862,
        -0.07826250791549683,
        0.1700633466243744,
        -0.22009074687957764,
        -0.23382461071014404,
        0.023680338636040688,
        0.13264420628547668,
        -0.00806604977697134,
        -0.2385992705821991,
        -0.1591026932001114,
        -0.018740303814411163,
        0.2506713271141052,
        -0.16661059856414795,
        -0.02590089663863182,
        -0.06943292170763016,
        -0.05685541406273842,
        0.07502496987581253,
        -0.14112679660320282,
        0.12377094477415085,
        -0.010937195271253586,
        -0.007370414212346077,
        -0.06681618094444275,
        0.09691381454467773,
        -0.04253745079040527,
        -0.013504346832633018,
        -0.011723046191036701,
        -0.013547145761549473,
        -0.12592193484306335,
        -0.020039012655615807,
        -0.13836753368377686,
        -0.026490023359656334,
        0.04074256122112274,
        0.004249783232808113,
        0.02739936113357544,
        0.07145748287439346,
        -0.18362398445606232,
        -0.040527936071157455,
        -0.1596623957157135,
        -0.042892154306173325,
        -0.1390293538570404,
        0.21091017127037048,
        0.17975211143493652,
        0.004122601356357336,
        -0.013103298842906952,
        0.013472464866936207,
        -0.14549794793128967,
        -0.021400969475507736,
        0.05985346809029579,
        0.03548276796936989,
        -0.04027443379163742,
        0.015089981257915497,
        -0.024964142590761185,
        0.025650430470705032,
        -0.011524456553161144,
        0.06314820051193237,
        -0.021326614543795586,
        0.05607081204652786,
        -0.03853188082575798,
        0.02214670181274414,
        0.00017006765119731426,
        -0.06291364878416061,
        0.010439718142151833,
        0.046541977673769,
        0.012302534654736519,
        -0.025041064247488976,
        -0.016346266493201256,
        -0.04299267753958702,
        0.15820902585983276,
        -0.050550322979688644,
        -0.024501541629433632,
        0.031739961355924606,
        -0.02266814559698105,
        -0.0055315615609288216,
        0.31614431738853455,
        0.18458391726016998,
        0.32771098613739014,
        -0.02349364385008812,
        0.002082447288557887,
        -0.1518286168575287,
        0.12186535447835922,
        0.030708016827702522,
        0.07379025965929031,
        0.2319573312997818,
        -0.11079831421375275,
        0.022544702515006065,
        0.06894095987081528,
        -0.18147346377372742,
        0.11467008292675018,
        0.08503913879394531,
        0.03572997450828552,
        -0.023985883221030235,
        0.009427892044186592,
        0.08658839762210846,
        -0.22023631632328033,
        -0.2893775403499603,
        0.14370134472846985,
        -0.0005348364938981831,
        -0.22121962904930115,
        -0.14825253188610077,
        -0.10495293885469437,
        0.15911220014095306,
        0.18668735027313232,
        -0.07080230861902237,
        -0.05430520325899124,
        -0.06154284253716469,
        -0.03748677670955658,
        0.047449059784412384,
        -0.07485602796077728,
        0.10300546139478683,
        -0.1205533817410469,
        0.03078514151275158,
        0.06142117828130722,
        0.06966215372085571,
        -0.036297865211963654,
        0.024541446939110756,
        0.02794105000793934,
        0.04596756398677826,
        -0.06236557289958,
        -0.05751608684659004,
        -0.07702706009149551,
        0.04723716527223587,
        -0.013182494789361954,
        0.012566518038511276,
        0.03978830948472023,
        0.0774412751197815,
        -0.0639716163277626,
        -0.012317528016865253,
        -0.01812875270843506,
        -0.041873808950185776,
        -0.07547806203365326,
        0.04327714070677757,
        0.2054387629032135,
        0.05360620468854904,
        0.05144018307328224,
        0.05167140066623688,
        -0.0992046445608139,
        0.04223074018955231,
        0.12224619090557098,
        0.10732515901327133,
        -0.009293469600379467,
        -0.0742596760392189,
        0.06134556233882904,
        0.0035425943788141012,
        -0.10126017034053802,
        -0.1055726557970047,
        -0.03163822740316391,
        0.03603170067071915,
        -0.039592139422893524,
        -0.0011950281914323568,
        -0.11506155133247375,
        -0.03987553343176842,
        -0.041767653077840805,
        0.11621475964784622,
        0.04646666347980499,
        0.0869467556476593,
        0.013017443008720875,
        0.03516407310962677,
        0.16780053079128265,
        0.11987892538309097,
        0.03827519714832306,
        -0.03495216369628906,
        -0.09864328056573868,
        -0.039861224591732025,
        0.07121231406927109,
        -0.014377251267433167,
        0.08413271605968475,
        0.08878642320632935,
        0.11661003530025482,
        0.06555858999490738,
        0.030980229377746582,
        0.04321212321519852,
        0.025535285472869873,
        -0.015161004848778248,
        -0.014146149158477783,
        0.05881595239043236,
        -0.08916740119457245,
        -0.10115735977888107,
        0.09785441309213638,
        0.061879269778728485,
        0.0762985348701477,
        0.07711327821016312,
        -0.0903085395693779,
        0.21575897932052612,
        -0.09300907701253891,
        0.09054790437221527,
        0.09261579066514969,
        -0.11477102339267731,
        0.28170421719551086,
        -0.11249314993619919,
        0.15399965643882751,
        0.16063077747821808,
        -0.03841973468661308,
        0.04714766517281532,
        -0.016510825604200363,
        0.07008368521928787,
        -0.21871572732925415,
        -0.05588902533054352,
        -0.19425928592681885,
        -0.0070979418233036995,
        0.018774908035993576,
        -0.06445974856615067,
        -0.03118043951690197,
        -0.04437839612364769,
        -0.010523767210543156,
        0.05482067912817001,
        0.0035427396651357412,
        0.037835728377103806,
        -0.09290876239538193,
        0.032568976283073425,
        0.007378720678389072,
        -0.08766704797744751,
        -0.07709617912769318,
        0.04522769898176193,
        0.09093976765871048,
        -0.005798561032861471,
        0.018778366968035698,
        0.06495657563209534,
        -0.05227202922105789,
        0.012987609952688217,
        0.045367177575826645,
        0.029965855181217194,
        0.004358167760074139,
        0.002740011317655444,
        0.007775572128593922,
        0.0038501687813550234,
        0.03907179459929466,
        -0.0312152449041605,
        0.128799706697464,
        -0.14732636511325836,
        -0.08319032937288284,
        0.028222614899277687,
        0.01961488649249077,
        -0.0150382611900568,
        0.06778044998645782,
        -0.0014249481027945876,
        -0.0161318127065897,
        -0.009050946682691574,
        0.08419936895370483,
        -0.03524138033390045,
        0.10248387604951859,
        -0.15764667093753815,
        -0.010249125771224499,
        -0.04645911976695061,
        -0.020024744793772697,
        -0.10828682780265808,
        -0.003320081392303109,
        -0.004529195372015238,
        0.0012773084454238415,
        0.03731155022978783,
        -0.04279612377285957,
        -0.2630407214164734,
        -0.07841839641332626,
        0.03702547773718834,
        -0.048638246953487396,
        -0.06966686993837357,
        0.07964210212230682,
        0.02917349338531494,
        0.3309693932533264,
        0.02435148134827614,
        -0.025169245898723602,
        -0.032655514776706696,
        -0.005277819931507111,
        0.00969871785491705,
        -0.0600522942841053,
        -0.05622931569814682,
        -0.009779362007975578,
        -0.0366104431450367,
        -0.0428830161690712,
        -0.0649859830737114,
        0.012534043751657009,
        -0.06138205900788307,
        0.05688365176320076,
        0.003838860196992755,
        0.0584883838891983,
        -0.09482862800359726,
        -0.027514146640896797,
        -0.09612006694078445,
        0.1929023265838623,
        -0.02505546621978283,
        -0.17184308171272278,
        -0.15023371577262878,
        0.012587801553308964,
        -0.0018083036411553621,
        0.003836487652733922,
        -0.09217046946287155,
        -0.06543374806642532,
        0.057568956166505814,
        -0.10278380662202835,
        -0.016205666586756706,
        0.05175225809216499,
        -0.0013655814109370112,
        0.05505567789077759,
        -0.05768837034702301,
        0.020423302426934242,
        -0.034322746098041534,
        -0.028549358248710632,
        -0.06282162666320801,
        0.08719214051961899,
        -0.015095722861588001,
        -0.06562522798776627,
        -0.04766888543963432,
        -0.0027243271470069885,
        0.08442122489213943,
        0.06781524419784546,
        0.04503775015473366,
        0.007523956708610058,
        0.04829170182347298,
        -0.21684454381465912,
        0.1521414816379547,
        -0.005933198146522045,
        -0.03773096576333046,
        0.08970233798027039,
        -0.0025367268826812506,
        -0.007487925700843334,
        -0.021310433745384216,
        -0.09499097615480423,
        -0.0023177042603492737,
        0.24712751805782318,
        0.4430447220802307,
        0.008160294033586979,
        -0.025784721598029137,
        -0.006036462727934122,
        -0.024646561592817307,
        0.008515779860317707,
        0.002813959727063775,
        0.02158370427787304,
        -0.006653346121311188,
        0.015345863997936249,
        0.35815995931625366,
        0.03272394835948944,
        -0.017627030611038208,
        0.006944239605218172,
        -0.015077649615705013,
        0.03478427976369858,
        0.01268609520047903,
        0.011867143213748932,
        0.006249309983104467,
        -0.2742820978164673,
        -0.2514210641384125,
        0.1748160570859909,
        -0.2126210480928421,
        -0.029701821506023407,
        -0.022981638088822365,
        0.09941130131483078,
        -0.08295972645282745,
        0.03427674621343613,
        -0.024386979639530182,
        0.012921404093503952,
        0.03445596992969513,
        0.044534698128700256,
        -0.020437296479940414,
        -0.08887192606925964,
        0.051359161734580994,
        0.0830995962023735,
        -0.06525544077157974,
        -0.06874429434537888,
        -0.08986762911081314,
        0.012411849573254585,
        0.016101300716400146,
        -0.10123205929994583,
        0.0458226203918457,
        -0.05691677704453468,
        -0.0552152544260025,
        0.022939244285225868,
        0.020785612985491753,
        -0.026947563514113426,
        -0.022150862962007523,
        -0.13648462295532227,
        0.13002750277519226,
        -0.015157576650381088,
        0.06936071068048477,
        -0.04462549835443497,
        -0.06339619308710098,
        0.028244124725461006,
        -0.03910653293132782,
        0.10759730637073517,
        0.014753487892448902,
        0.026167210191488266,
        -0.025967881083488464,
        0.06842673569917679,
        -0.01554169598966837,
        0.05353332310914993,
        -0.03440325707197189,
        -0.022655129432678223,
        -0.031357552856206894,
        0.05307399854063988,
        0.004362461157143116,
        0.04825815558433533,
        -0.02239527739584446,
        -0.037824444472789764,
        -0.011975944973528385,
        -0.005682751070708036,
        -0.021324120461940765,
        -0.02429593913257122,
        -0.004999900236725807,
        -0.06585464626550674,
        -0.033137790858745575,
        -0.07135073840618134,
        -0.08528470247983932,
        -0.07908598333597183,
        0.04721617326140404,
        0.08556792140007019,
        0.009555073454976082,
        0.09462692588567734,
        0.11207129061222076,
        -0.2918192148208618,
        -0.18569454550743103,
        -0.06897419691085815,
        0.01968289725482464,
        -0.11528149247169495,
        -0.01814352720975876,
        -0.010819223709404469,
        -0.03949182853102684,
        -0.00904155895113945,
        -0.08252330124378204,
        0.051035284996032715,
        0.024448875337839127,
        -0.10277895629405975,
        0.12721417844295502,
        0.008929540403187275,
        0.05308397114276886,
        0.01671646535396576,
        0.030874865129590034,
        0.00516546331346035,
        -0.09275820851325989,
        0.005653426516801119,
        0.035369277000427246,
        -0.03232766315340996,
        0.15969201922416687,
        0.020733840763568878,
        0.10803087800741196,
        -0.019808240234851837,
        0.052399273961782455,
        -0.018844034522771835,
        -0.02816249057650566,
        0.0866466611623764,
        -0.04459254816174507,
        0.043927937746047974,
        -0.01819409430027008,
        0.008279601112008095,
        0.007536410354077816,
        -0.014892914332449436,
        0.024936771020293236,
        0.007219824939966202,
        -0.010790509171783924,
        -0.005301333963871002,
        -0.0442407988011837,
        0.0954466387629509,
        -0.009861867874860764,
        0.007928580045700073,
        0.05809929966926575,
        0.02593356929719448,
        0.07676137983798981,
        0.010446050204336643,
        -0.011267105117440224,
        0.019097313284873962,
        -0.07581650465726852,
        0.028172604739665985,
        -0.0065360297448933125,
        0.04625605046749115,
        -0.02726791799068451,
        -0.03960268571972847,
        -0.040614522993564606,
        -0.08706720918416977,
        0.07262595742940903,
        0.4668123126029968,
        0.08731454610824585,
        -0.3415414094924927,
        0.11041771620512009,
        -0.15367214381694794,
        0.2070385366678238,
        0.08235987275838852,
        0.21605288982391357,
        -0.07755507528781891,
        -0.10378935933113098,
        -0.2619430422782898,
        0.04969070479273796,
        -0.1283651441335678,
        -0.024828186258673668,
        -0.33571261167526245,
        0.19675536453723907,
        -0.07103053480386734,
        0.05220839008688927,
        -0.16604164242744446,
        -0.026494702324271202,
        -0.1570175439119339,
        0.011786567978560925,
        -0.3268909454345703,
        -0.17834916710853577,
        -0.0432705394923687,
        0.28373661637306213,
        0.23697596788406372,
        0.1310083270072937,
        -0.022657383233308792,
        -0.06582455337047577,
        -0.009349829517304897,
        0.049651313573122025,
        -0.03814702481031418,
        0.12685713171958923,
        0.02496800199151039,
        -0.026018965989351273,
        -0.043956875801086426,
        0.08343613147735596,
        -0.10790150612592697,
        -0.042170893400907516,
        -0.004274115897715092,
        0.03740529343485832,
        -0.1568150520324707,
        -0.01989450305700302,
        -0.011065811850130558,
        0.02158399485051632,
        0.022791163995862007,
        0.06740006804466248,
        0.021592799574136734,
        0.05635589733719826,
        0.011280969716608524,
        0.04719389230012894,
        0.05187821760773659,
        -0.045095328241586685,
        -0.04486166685819626,
        0.09785350412130356,
        0.10146046429872513,
        -0.045043665915727615,
        -0.004914047196507454,
        -0.10830152034759521,
        -0.12171381711959839,
        0.004651447292417288,
        -0.17958450317382812,
        0.04229890927672386,
        0.008377844467759132,
        0.004187086131423712,
        -0.10617456585168839,
        0.012490891851484776,
        0.00891470443457365,
        0.016099601984024048,
        0.08187143504619598,
        0.05641470476984978,
        -0.06731763482093811,
        0.0610356368124485,
        -0.047764163464307785,
        0.02782212570309639,
        3.062645919271745e-05,
        -0.016961367800831795,
        -0.0957922637462616,
        -0.0015360919060185552,
        -0.0026731211692094803,
        0.027482420206069946,
        -0.2453417181968689,
        -0.016084741801023483,
        -0.13242340087890625,
        0.27192559838294983,
        0.17936204373836517,
        0.025118105113506317
      ]
    },
    {
      "activation": "linear",
      "architecture": "dense",
      "bias": [
        0.6827921867370605,
        -0.4636707901954651,
        0.1562970131635666,
        -1.3624308109283447,
        -1.8583533763885498,
        0.18117943406105042,
        0.20389670133590698,
        -0.8462856411933899,
        0.9508323669433594,
        -0.7251327633857727,
        3.1803479194641113,
        0.9890822768211365,
        -0.12944507598876953,
        0.8696637153625488,
        0.5589380860328674,
        -2.399127721786499,
        -1.1423962116241455,
        3.2550525665283203,
        -1.324864387512207,
        -1.000414252281189,
        1.6547589302062988,
        2.838960647583008,
        -1.0985537767410278,
        0.7796330451965332,
        1.0566927194595337,
        -0.11854210495948792,
        -1.0203707218170166,
        -2.871577024459839,
        0.5864923596382141,
        -0.5064364671707153,
        1.1814119815826416,
        0.21762654185295105,
        -1.2599091529846191,
        0.6255693435668945,
        1.7889502048492432,
        -0.44943130016326904,
        -0.22970494627952576,
        1.3433451652526855,
        -2.354422092437744,
        -1.0896140336990356,
        -0.7905645966529846,
        3.338581085205078,
        0.21790777146816254,
        -0.014307322911918163,
        -2.9082863330841064,
        2.048591375350952,
        -2.2380995750427246,
        -1.7673617601394653,
        1.6395968198776245,
        0.9150362014770508,
        -1.838692307472229,
        0.32144761085510254,
        3.250082492828369,
        0.6520100831985474,
        0.07049868255853653,
        0.7242449522018433,
        0.6855497360229492,
        -0.4690569043159485,
        0.19620545208454132,
        -3.284144878387451
      ],
      "weights": [
        0.03473909571766853,
        0.033396050333976746,
        -0.010757955722510815,
        0.007551466580480337,
        -0.01933234930038452,
        0.02006923407316208,
        -0.011135848239064217,
        0.00864228792488575,
        0.023600347340106964,
        0.011111638508737087,
        -0.02546098083257675,
        -0.02632858045399189,
        0.05172080919146538,
        0.04693704470992088,
        0.019871560856699944,
        -0.006595097482204437,
        0.0051351068541407585,
        -0.038265276700258255,
        -0.03448331356048584,
        -0.015776805579662323,
        4.360361344879493e-05,
        0.023695306852459908,
        0.012562927789986134,
        -0.022168627008795738,
        -0.03439676761627197,
        -0.012025255709886551,
        0.03011462092399597,
        -0.009257693774998188,
        0.013236066326498985,
        -0.02918178215622902,
        0.012552473694086075,
        0.017879890277981758,
        -0.010174285620450974,
        0.012052251026034355,
        -0.012503343634307384,
        0.0374392494559288,
        -0.013217835687100887,
        -0.019650252535939217,
        0.060524024069309235,
        -0.004263634793460369,
        0.03498953953385353,
        0.012259138748049736,
        -0.02920682169497013,
        -0.018542218953371048,
        -0.008645436726510525,
        0.035589732229709625,
        -0.00795510783791542,
        -0.040397003293037415,
        0.02502034418284893,
        0.033049214631319046,
        0.027951445430517197,
        -0.006585386581718922,
        -0.00115136057138443,
        -0.036468133330345154,
        0.034298066049814224,
        0.014402251690626144,
        -0.01242042239755392,
        -0.0004634943325072527,
        0.005351488012820482,
        -0.029401686042547226,
        -0.03472445532679558,
        0.013300348073244095,
        -0.02288234792649746,
        0.03423771634697914,
        -0.07077451795339584,
        -0.05411966145038605,
        -0.0129402382299304,
        -0.05103724077343941,
        -0.015987515449523926,
        -0.019221795722842216,
        0.014582612551748753,
        0.004264188930392265,
        -0.03455694764852524,
        -0.018936408683657646,
        0.0019358699209988117,
        0.02475358359515667,
        -0.011730452999472618,
        0.011074371635913849,
        0.0006476216367445886,
        -0.009334549307823181,
        -0.03627295792102814,
        0.0029216413386166096,
        -0.011889870278537273,
        0.036869075149297714,
        -0.01359782088547945,
        0.006871796678751707,
        0.018798325210809708,
        0.007953999564051628,
        0.042210653424263,
        0.04773438349366188,
        0.02445802465081215,
        0.00597892003133893,
        -0.06676764041185379,
        -0.05673520639538765,
        0.06875330954790115,
        0.02153550460934639,
        -0.022482987493276596,
        -0.05792815238237381,
        -0.029936445876955986,
        0.006300296168774366,
        0.020937494933605194,
        -0.03057844005525112,
        0.004695933312177658,
        -0.028938837349414825,
        0.032774802297353745,
        -0.0025015228893607855,
        -0.012423244304955006,
        -0.006093970499932766,
        0.015307299792766571,
        0.005029889754951,
        -0.00932447612285614,
        -0.018624132499098778,
        0.0010345225455239415,
        -0.01598379947245121,
        -0.01705988496541977,
        0.04364195466041565,
        -0.016865547746419907,
        -0.030333315953612328,
        0.050044383853673935,
        0.018840400502085686,
        -0.0099549051374197,
        0.0291267242282629,
        0.023875640705227852,
        0.03869770094752312,
        0.010952809825539589,
        0.025344954803586006,
        0.017213914543390274,
        -0.01472927164286375,
        -0.002340191276744008,
        -0.00938206072896719,
        -0.034909892827272415,
        -0.042255159467458725,
        -0.0323815792798996,
        -0.0057926783338189125,
        0.00395682780072093,
        0.001713570556603372,
        -0.00345528032630682,
        -0.022809982299804688,
        0.0033096044789999723,
        0.0538119301199913,
        -0.008576538413763046,
        0.08305839449167252,
        -0.03976229205727577,
        -0.004861994180828333,
        0.0020672925747931004,
        0.015663692727684975,
        -0.02877853438258171,
        0.002757040783762932,
        0.030113285407423973,
        -0.005333297420293093,
        0.06793737411499023,
        -0.03191031143069267,
        0.026987718418240547,
        0.0694211944937706,
        0.018403077498078346,
        0.021419081836938858,
        0.027979157865047455,
        -0.006410885602235794,
        0.01253215130418539,
        0.0059023210778832436,
        0.005231738556176424,
        0.0205934289842844,
        -0.0003084377967752516,
        -0.05133888125419617,
        -0.034679874777793884,
        -0.014376622624695301,
        -0.04595089703798294,
        -0.027280811220407486,
        -0.012282435782253742,
        -0.022241894155740738,
        0.026476897299289703,
        -0.03992152586579323,
        -0.0002992596128024161,
        -0.01429617591202259,
        -0.005557159893214703,
        0.014864543452858925,
        -0.009389307349920273,
        0.020399954169988632,
        -0.042066790163517,
        0.017248358577489853,
        -0.03301501274108887,
        0.007250732742249966,
        -0.0012656882172450423,
        0.015714576467871666,
        -0.046599384397268295,
        0.014825043268501759,
        0.02157542109489441,
        0.012387392111122608,
        -0.010419516824185848,
        0.021969446912407875,
        -0.023629525676369667,
        0.021544409915804863,
        0.025556160137057304,
        -0.020251914858818054,
        -0.0345027931034565,
        -0.023008199408650398,
        -0.01575642265379429,
        0.014567894861102104,
        -0.08740587532520294,
        -0.021293556317687035,
        -0.0659235417842865,
        -0.04480845481157303,
        -0.025738166645169258,
        0.005909739062190056,
        -0.040942370891571045,
        -0.0064636836759746075,
        -0.012173956260085106,
        0.0037074014544487,
        -0.07864899933338165,
        0.07315307855606079,
        0.03145952522754669,
        -0.0011229756055399776,
        -0.04767333343625069,
        -0.11142149567604065,
        8.810409781290218e-05,
        0.03910386189818382,
        -0.06395384669303894,
        -0.09663733839988708,
        -0.040528587996959686,
        0.0029993364587426186,
        -0.005768609698861837,
        -0.06890619546175003,
        -0.0957314670085907,
        0.01755758374929428,
        0.04910941794514656,
        0.06330180913209915,
        -0.020118005573749542,
        -0.03355545550584793,
        0.033879321068525314,
        0.014357910491526127,
        0.018324831500649452,
        -0.020423125475645065,
        0.003254832699894905,
        -0.06197090446949005,
        -0.0496932752430439,
        -0.0066897133365273476,
        0.006945784203708172,
        -0.04773721471428871,
        0.03339526802301407,
        -0.04592183604836464,
        -0.04319663345813751,
        0.010530694387853146,
        -0.05245615541934967,
        -0.01614127680659294,
        0.01922791637480259,
        -0.005922006908804178,
        0.01165062841027975,
        -0.012749556452035904,
        -0.014744166284799576,
        0.07764652371406555,
        -0.006328209303319454,
        -0.027557188645005226,
        0.0961415022611618,
        0.019007382914423943,
        -0.03103734366595745,
        0.02598395384848118,
        -0.005975078325718641,
        -0.0891355499625206,
        -0.06388451159000397,
        0.0002575922117102891,
        0.018165694549679756,
        0.0278466809540987,
        0.0677064061164856,
        -0.012391760013997555,
        -0.02510152943432331,
        -0.0736703872680664,
        -0.02435486577451229,
        -0.005254673305898905,
        0.011474198661744595,
        -0.06585152447223663,
        -0.042660970240831375,
        0.020699232816696167,
        0.03956162929534912,
        0.011412538588047028,
        0.019674159586429596,
        0.03324037417769432,
        -0.040693484246730804,
        0.0641610398888588,
        -0.016671614721417427,
        -0.03501204028725624,
        -0.0555763766169548,
        0.08686692267656326,
        -0.010782926343381405,
        0.03213111311197281,
        -0.03523280844092369,
        0.05606216564774513,
        0.03863828629255295,
        -0.01293027400970459,
        -0.014727500267326832,
        -0.01198012474924326,
        -0.06788325309753418,
        0.048013005405664444,
        0.002961403224617243,
        -0.038838911801576614,
        0.017041970044374466,
        0.029394617304205894,
        -0.06259243190288544,
        0.001093552215024829,
        -0.0006035261903889477,
        0.010197835974395275,
        0.02921440452337265,
        0.020048758015036583,
        0.013298305682837963,
        -0.003663174342364073,
        0.006851541344076395,
        0.05003175884485245,
        -0.024093318730592728,
        0.02250482514500618,
        0.0016035877633839846,
        0.02713550068438053,
        -0.031319212168455124,
        -0.007272480521351099,
        -0.025942731648683548,
        -0.012781151570379734,
        0.013571089133620262,
        -0.035809703171253204,
        0.020410379394888878,
        0.020400581881403923,
        -0.002825134200975299,
        0.01682160049676895,
        0.0033162699546664953,
        0.04807531088590622,
        0.004141923971474171,
        0.007228359114378691,
        0.0270064827054739,
        -0.017703844234347343,
        0.02170787937939167,
        0.0399581715464592,
        -0.023861227557063103,
        0.021306810900568962,
        0.030411021783947945,
        0.011463441886007786,
        -0.010370839387178421,
        0.024575306102633476,
        0.012265888042747974,
        0.01935611665248871,
        0.027530010789632797,
        -0.007291662972420454,
        0.017886264249682426,
        0.0025771434884518385,
        -0.028210120275616646,
        0.009448371827602386,
        -0.04102443531155586,
        0.010939806699752808,
        -0.03647252544760704,
        0.0007948835263960063,
        -0.0037574011366814375,
        0.0001401311601512134,
        0.029552333056926727,
        -0.03199594467878342,
        0.02662583440542221,
        0.012367051094770432,
        -0.00031254402711056173,
        -0.050869230180978775,
        0.013500777073204517,
        0.0013853043783456087,
        0.013342426158487797,
        0.023093432188034058,
        -0.02020365186035633,
        -0.02076423540711403,
        0.0036161865573376417,
        0.023437051102519035,
        -0.006136718671768904,
        -0.06639853119850159,
        0.01713690347969532,
        0.06230439245700836,
        -0.014406969770789146,
        -0.025802556425333023,
        0.0291206706315279,
        -0.020210059359669685,
        -0.006761015858501196,
        0.005188750568777323,
        0.0002556357649154961,
        0.04051762446761131,
        -0.0037765996530652046,
        0.03284042701125145,
        0.06179044395685196,
        -0.01238905917853117,
        0.010970095172524452,
        -0.03393829986453056,
        -0.01289671752601862,
        0.0330454483628273,
        0.020011436194181442,
        -0.037929240614175797,
        0.010886156000196934,
        -0.02295149676501751,
        0.018787138164043427,
        -0.030900169163942337,
        0.03157695010304451,
        -0.03848076984286308,
        0.035222794860601425,
        -0.0008363553206436336,
        0.035753682255744934,
        0.03994063660502434,
        -0.016162967309355736,
        -0.008631758391857147,
        -0.030051875859498978,
        0.019949857145547867,
        0.023710893467068672,
        -0.0037493640556931496,
        0.006540268659591675,
        -0.00013530394062399864,
        -0.044173382222652435,
        -0.027762524783611298,
        0.01830361783504486,
        0.046650659292936325,
        0.008127584122121334,
        0.026612097397446632,
        -0.04610532894730568,
        0.014902882277965546,
        -0.009198084473609924,
        0.02265891432762146,
        -0.0004364493361208588,
        0.03793718293309212,
        0.016998181119561195,
        0.022407952696084976,
        0.029232166707515717,
        0.00917009823024273,
        -0.009194186888635159,
        0.020636318251490593,
        -0.04973633959889412,
        -0.038454413414001465,
        0.00875580683350563,
        0.0013253542128950357,
        0.023169521242380142,
        -0.07219074666500092,
        -0.048371922224760056,
        0.03182423487305641,
        0.02113736793398857,
        0.014648101292550564,
        0.0020317831076681614,
        0.02253992296755314,
        -0.03901057690382004,
        -0.02247806079685688,
        0.007901896722614765,
        0.01907416246831417,
        0.013435185886919498,
        -0.03024943545460701,
        -0.011602485552430153,
        0.0043824585154652596,
        -0.00430344557389617,
        0.0034729111939668655,
        -0.06652936339378357,
        -0.0021748370490968227,
        0.07649905979633331,
        0.03524479642510414,
        0.018997030332684517,
        0.0333525575697422,
        0.04990478977560997,
        -0.011355791240930557,
        0.021747520193457603,
        -0.022496316581964493,
        0.0012882378650829196,
        0.020751003175973892,
        -0.02173321694135666,
        -0.02093273214995861,
        0.04802730306982994,
        0.002167046070098877,
        0.009540244936943054,
        -0.0037916379515081644,
        0.06403516232967377,
        -0.03640899062156677,
        0.03546935319900513,
        -0.05195213481783867,
        0.0012971421238034964,
        0.014570401981472969,
        0.02402489446103573,
        0.025453709065914154,
        0.008324437774717808,
        0.04378499835729599,
        -0.025262560695409775,
        -0.015624647960066795,
        0.0012573044514283538,
        -0.01226090732961893,
        0.02818053588271141,
        0.04988517984747887,
        0.014992192387580872,
        0.018421608954668045,
        -0.014737834222614765,
        -0.026421090587973595,
        -0.04880222678184509,
        0.014290294609963894,
        -0.07659196108579636,
        0.01703672483563423,
        0.022219378501176834,
        0.00019652371702250093,
        0.009798486717045307,
        -0.0014674128033220768,
        -0.02310793474316597,
        0.009684870019555092,
        0.03370901569724083,
        -0.0015658751362934709,
        -0.021899735555052757,
        0.05821564421057701,
        0.017564183101058006,
        -0.002967961598187685,
        -0.04761040210723877,
        0.06021677702665329,
        0.07944123446941376,
        -0.011533361859619617,
        0.005006734281778336,
        0.016552859917283058,
        -0.009859892539680004,
        -0.033124517649412155,
        -0.02968134731054306,
        -0.02990441583096981,
        0.054118555039167404,
        0.0022969446144998074,
        0.03534037619829178,
        -0.06153165549039841,
        -0.010571175254881382,
        0.010208908468484879,
        -0.02322692610323429,
        -0.03368759900331497,
        0.018102237954735756,
        -0.009669341146945953,
        0.010145356878638268,
        0.05439816787838936,
        -0.007099381182342768,
        0.004834562074393034,
        -0.011107143945991993,
        0.051703039556741714,
        0.004060190171003342,
        0.021061141043901443,
        -0.0537477470934391,
        -0.07653402537107468,
        0.0033552281092852354,
        0.012543326243758202,
        0.0036758347414433956,
        0.08385937660932541,
        -0.05575269088149071,
        -0.029187072068452835,
        -0.0016160538652911782,
        -0.010861687362194061,
        0.01911657303571701,
        -0.038968849927186966,
        -0.01936187967658043,
        0.018096331506967545,
        0.03663955628871918,
        0.017841776832938194,
        -0.036652565002441406,
        -0.016586892306804657,
        0.00445261225104332,
        -0.012453069910407066,
        -0.06401041895151138,
        0.04823831096291542,
        0.0324229896068573,
        -0.04303400591015816,
        0.04681338742375374,
        -0.09761115908622742,
        0.03835127502679825,
        -0.013045798055827618,
        0.011005235835909843,
        -0.0026706564240157604,
        0.04531096667051315,
        0.030169690027832985,
        -0.003878537332639098,
        -0.006349417380988598,
        0.03734493628144264,
        -0.017383620142936707,
        -0.013452885672450066,
        -0.0004903940134681761,
        -0.03519485518336296,
        0.0051950737833976746,
        0.06753437221050262,
        -0.025469429790973663,
        0.011678396724164486,
        0.021319158375263214,
        0.034007374197244644,
        0.0734313353896141,
        -0.02779831923544407,
        0.004484950564801693,
        -0.03656574711203575,
        0.001462830463424325,
        0.008126970380544662,
        -0.010310563258826733,
        0.03283314406871796,
        0.00357293663546443,
        -0.0003323621931485832,
        -0.01249743439257145,
        0.009726112708449364,
        -0.03114502876996994,
        -0.017505383118987083,
        -0.015115558169782162,
        -0.00887343194335699,
        -0.027038900181651115,
        0.012182260863482952,
        -0.019987348467111588,
        -0.021918319165706635,
        0.014100354164838791,
        -0.053563885390758514,
        0.03328082710504532,
        0.0012605334632098675,
        -0.009764481335878372,
        0.002297215862199664,
        -0.01703502982854843,
        0.02330927737057209,
        0.03148126229643822,
        0.07348756492137909,
        0.055810604244470596,
        -0.007093472871929407,
        0.038998134434223175,
        0.10204204171895981,
        0.16922155022621155,
        0.06625664979219437,
        -0.12967750430107117,
        0.10209740698337555,
        0.14082935452461243,
        -0.1281471997499466,
        -0.01210832316428423,
        0.12768058478832245,
        0.18568584322929382,
        -0.046238500624895096,
        0.1340135782957077,
        0.1816265732049942,
        0.09939369559288025,
        -0.17909453809261322,
        -0.13230903446674347,
        0.009564843028783798,
        0.12304440885782242,
        -0.02357843704521656,
        0.1646159291267395,
        -0.2507917881011963,
        -0.04293833300471306,
        -0.09862450510263443,
        -0.060126084834337234,
        0.1349353790283203,
        0.09782420098781586,
        -0.12547622621059418,
        -0.06700122356414795,
        0.216324120759964,
        0.06353665888309479,
        -0.019004780799150467,
        -0.03172340616583824,
        -0.008762536570429802,
        -0.20918090641498566,
        -0.09256826341152191,
        -0.03544991463422775,
        -0.1482984870672226,
        0.132978156208992,
        0.13484477996826172,
        0.06296966969966888,
        -0.14939580857753754,
        0.1435777097940445,
        0.1565302312374115,
        -0.20490480959415436,
        -0.07683096826076508,
        0.2282106578350067,
        -0.11285346746444702,
        0.23648716509342194,
        0.04848755523562431,
        -0.18669722974300385,
        0.2826874852180481,
        0.245561882853508,
        0.11342902481555939,
        0.04308970272541046,
        0.13810497522354126,
        -0.13814957439899445,
        0.10587351024150848,
        0.059576015919446945,
        -0.015610594302415848,
        -0.031752582639455795,
        0.06333447247743607,
        -0.007374494802206755,
        0.02684919536113739,
        0.04429671913385391,
        0.03981918841600418,
        -0.02018476091325283,
        -0.002591680036857724,
        0.0025995823089033365,
        0.02543560415506363,
        0.006525031290948391,
        -0.03531532362103462,
        -0.03379638493061066,
        0.029982728883624077,
        0.03105146810412407,
        0.03182012215256691,
        0.05305025726556778,
        0.0549430251121521,
        0.020303942263126373,
        -0.056570716202259064,
        0.03196360170841217,
        -0.05595189332962036,
        0.01962667889893055,
        -0.05774136260151863,
        -0.028117477893829346,
        -0.040697287768125534,
        0.001881436095573008,
        -4.8798236093716696e-05,
        0.02358417399227619,
        0.0026573340874165297,
        -0.03643840551376343,
        -0.009672748856246471,
        0.015820370987057686,
        0.03984316065907478,
        0.006035008933395147,
        0.03436170518398285,
        0.009467964060604572,
        -0.044571131467819214,
        -0.049065593630075455,
        0.004561775829643011,
        0.043495405465364456,
        -0.004609875846654177,
        0.011504579335451126,
        -0.027339795604348183,
        0.00550341559574008,
        -0.03708230331540108,
        -0.02979815937578678,
        -0.0198591910302639,
        -0.02315882407128811,
        0.00248238118365407,
        -0.005681060720235109,
        -0.0016072739381343126,
        -0.008948021568357944,
        -0.00021110910165589303,
        0.0252158734947443,
        0.014298520050942898,
        0.0038918093778192997,
        0.015336383134126663,
        -0.027542486786842346,
        -0.0006276989006437361,
        0.003550805151462555,
        0.012937719002366066,
        0.015468104742467403,
        -0.06484725326299667,
        0.04715893417596817,
        0.0035510065499693155,
        -0.0017316315788775682,
        0.02159952186048031,
        0.028334205970168114,
        0.03938101604580879,
        0.008193431422114372,
        -0.005562222097069025,
        0.0017190271755680442,
        0.03830201178789139,
        0.0003778431564569473,
        0.02579970844089985,
        -0.041964247822761536,
        -0.0011932224733754992,
        -0.026635171845555305,
        0.003049052320420742,
        0.021778766065835953,
        0.0330529510974884,
        0.005553532391786575,
        -0.034566134214401245,
        -0.0009215021855197847,
        -0.018353361636400223,
        -0.003554505528882146,
        -0.021461203694343567,
        0.038070086389780045,
        0.002318020211532712,
        0.059962283819913864,
        -0.015540148131549358,
        0.03295456990599632,
        0.010988431051373482,
        0.026373744010925293,
        -0.00607349444180727,
        0.006328084040433168,
        -0.015608021058142185,
        -0.03776639699935913,
        0.06859518587589264,
        -0.010823367163538933,
        0.021450724452733994,
        0.025440532714128494,
        0.006783613469451666,
        -0.020886793732643127,
        -0.011979777365922928,
        0.017663784325122833,
        -0.009063862264156342,
        -0.029213890433311462,
        -0.0003930722887162119,
        0.022269343957304955,
        2.991471774294041e-05,
        -0.020559486001729965,
        0.019834941253066063,
        0.009645937010645866,
        0.003642416326329112,
        0.027909323573112488,
        -0.04542560130357742,
        -0.02068961039185524,
        0.0169063787907362,
        -0.04745045676827431,
        -0.008755682967603207,
        0.006032746750861406,
        -0.0442536436021328,
        0.003839771030470729,
        0.012811222113668919,
        -0.02948608249425888,
        -0.003108446719124913,
        0.019320759922266006,
        0.019786400720477104,
        0.05724559724330902,
        -0.01131362933665514,
        0.0018281155498698354,
        -0.018480010330677032,
        0.01600809395313263,
        -0.02653157338500023,
        -0.04561262205243111,
        -0.006098475307226181,
        0.04275771975517273,
        0.05352037772536278,
        0.08206553012132645,
        0.014351008459925652,
        0.0014232257381081581,
        -0.04395771771669388,
        -0.011369052343070507,
        -0.023932797834277153,
        -0.02441263757646084,
        -0.010478103533387184,
        0.01157950796186924,
        0.009807165712118149,
        0.013332420960068703,
        0.005098205059766769,
        0.08137630671262741,
        -0.03397313877940178,
        0.01795303262770176,
        0.038742173463106155,
        0.017079029232263565,
        -0.018116604536771774,
        -0.028675643727183342,
        0.04348530247807503,
        0.04996951296925545,
        -0.004399854224175215,
        -0.04600539430975914,
        -0.007294843439012766,
        0.05956149846315384,
        -0.010586481541395187,
        -0.01984594203531742,
        -0.0003769052855204791,
        -0.04155512526631355,
        0.0018408391624689102,
        0.008068790659308434,
        -0.0017627144698053598,
        -0.0060638426803052425,
        0.02193509042263031,
        0.0037067877128720284,
        -0.01695987582206726,
        -0.006977322977036238,
        -0.007833128795027733,
        -0.007774479687213898,
        0.014672445133328438,
        -0.033827781677246094,
        -0.015285929664969444,
        -0.045696455985307693,
        0.013723219744861126,
        0.051915887743234634,
        -0.03860202431678772,
        -0.023683389648795128,
        0.007029315922409296,
        0.002013137098401785,
        0.03683380037546158,
        -0.0014563951408490539,
        -0.0002550992358010262,
        -0.03721022978425026,
        0.007766833063215017,
        0.001570996711961925,
        0.03506141155958176,
        -0.007919369265437126,
        0.03560524061322212,
        0.031269002705812454,
        -0.04446481913328171,
        0.015465845353901386,
        0.010349386371672153,
        -0.03304460272192955,
        0.0017465188866481185,
        -0.02019696868956089,
        -0.029102850705385208,
        0.019909124821424484,
        0.016800926998257637,
        0.02044248953461647,
        0.0060813850723207,
        -0.022551370784640312,
        0.005037155468016863,
        -0.03377996385097504,
        0.02564966306090355,
        -0.028663067147135735,
        -0.02103981375694275,
        -0.0007540855440311134,
        0.03169421851634979,
        0.004983262158930302,
        -0.03689736872911453,
        0.007386405952274799,
        -0.00011638534488156438,
        -0.01981373317539692,
        0.006943919230252504,
        0.02196953259408474,
        0.032688502222299576,
        0.03578094020485878,
        0.02415994554758072,
        0.01575462706387043,
        0.027655871585011482,
        0.03448640555143356,
        -0.00047040506615303457,
        -0.04610973969101906,
        -0.006876389030367136,
        0.006095767952501774,
        -0.036659467965364456,
        -0.020033514127135277,
        -0.004588210955262184,
        0.021441977471113205,
        -0.15982791781425476,
        -0.07354650646448135,
        -0.13649918138980865,
        0.10600487887859344,
        -0.0493466816842556,
        -0.1484464704990387,
        -0.12305139750242233,
        0.04478224739432335,
        -0.1392577737569809,
        -0.09202823042869568,
        0.04874501749873161,
        0.07499774545431137,
        0.15401770174503326,
        0.021247057244181633,
        -0.00627659447491169,
        -0.025981081649661064,
        0.07626569271087646,
        0.012144646607339382,
        0.08757931739091873,
        -0.13620170950889587,
        -0.00122738943900913,
        -0.005677280016243458,
        0.14718689024448395,
        0.1639459729194641,
        -0.12175791710615158,
        0.009005893021821976,
        -0.11369672417640686,
        -0.01346850860863924,
        -0.0005781298968940973,
        -0.03637058287858963,
        -0.00520958099514246,
        0.05212979018688202,
        -0.1038460060954094,
        0.03132447227835655,
        0.0441569983959198,
        0.10657402127981186,
        -0.054671064019203186,
        0.018845580518245697,
        0.037278223782777786,
        0.005712003912776709,
        0.0962473675608635,
        0.2763209939002991,
        -0.20996861159801483,
        0.020736457780003548,
        -0.06671697646379471,
        0.00033256044844165444,
        -0.06185636669397354,
        -0.0021915435791015625,
        0.030885379761457443,
        -0.12106677889823914,
        -0.05267403647303581,
        -0.014218212105333805,
        0.0001305780024267733,
        0.14124885201454163,
        0.06378107517957687,
        0.07711330056190491,
        -0.013270010240375996,
        0.10325464606285095,
        -0.1044175773859024,
        0.02956809476017952,
        0.023379752412438393,
        -0.059166308492422104,
        -0.002019589301198721,
        -0.004313194192945957,
        -0.0439310297369957,
        -0.04375489056110382,
        -0.00768341263756156,
        -0.050161633640527725,
        -0.018690744414925575,
        0.018489237874746323,
        0.031734563410282135,
        0.03389158472418785,
        -0.0016306998440995812,
        -0.041836000978946686,
        -0.038698647171258926,
        0.045869480818510056,
        -0.030053384602069855,
        -0.01900554820895195,
        -0.01525983214378357,
        0.04477230831980705,
        0.025540467351675034,
        -0.041111212223768234,
        0.0396750271320343,
        -0.007371600717306137,
        -0.017478786408901215,
        -0.025796806439757347,
        -0.0005481162224896252,
        -0.0240386463701725,
        0.030356092378497124,
        -0.006814468652009964,
        0.022452089935541153,
        -0.029114939272403717,
        0.02600342035293579,
        0.029841164126992226,
        0.04729582741856575,
        -0.0067725409753620625,
        0.005156067665666342,
        0.05831839516758919,
        0.020299039781093597,
        0.003508250694721937,
        -0.03147862106561661,
        0.02013559266924858,
        -0.04408416897058487,
        0.020188456401228905,
        -0.018011372536420822,
        0.023169687017798424,
        0.05308973416686058,
        -0.011441987939178944,
        -0.06841444224119186,
        -0.04105519875884056,
        -0.02692706510424614,
        -0.01276154164224863,
        0.001769567490555346,
        0.0010294262319803238,
        0.04417696222662926,
        0.006928123068064451,
        0.029203832149505615,
        0.011495981365442276,
        0.024484343826770782,
        0.04015666991472244,
        -0.17762798070907593,
        -0.1561802178621292,
        -0.03816824033856392,
        0.08661742508411407,
        0.13654759526252747,
        -0.13877472281455994,
        -0.08220945298671722,
        -0.11512704938650131,
        0.11424343287944794,
        -0.10634462535381317,
        0.14079047739505768,
        -0.07016850262880325,
        -0.09873145073652267,
        0.15035079419612885,
        -0.023768151178956032,
        -0.13814137876033783,
        -0.06563824415206909,
        0.09032237529754639,
        0.11399505287408829,
        0.03248647227883339,
        0.10306522250175476,
        -0.05779104307293892,
        -0.03783268481492996,
        0.08677524328231812,
        0.17628242075443268,
        0.039022717624902725,
        -0.08770143985748291,
        0.027048593387007713,
        0.06422989815473557,
        0.018939530476927757,
        0.047577835619449615,
        -0.13067205250263214,
        0.22245968878269196,
        0.16843648254871368,
        -0.12415099889039993,
        0.10317490994930267,
        -0.08530977368354797,
        0.04341502860188484,
        0.05921605974435806,
        0.06215926259756088,
        -0.21023434400558472,
        0.14826354384422302,
        0.18318907916545868,
        0.1855519711971283,
        -0.046231091022491455,
        0.14654570817947388,
        0.02929139882326126,
        0.13372939825057983,
        0.0008653544937260449,
        0.059551361948251724,
        -0.08389514684677124,
        0.08022739738225937,
        0.300246924161911,
        -0.01642747037112713,
        0.06553110480308533,
        0.044082798063755035,
        -0.1163657009601593,
        0.15061551332473755,
        -0.2353689819574356,
        -0.0033025755546987057,
        0.009211283177137375,
        0.029959380626678467,
        0.03315339609980583,
        -0.07186844199895859,
        -0.009830501861870289,
        -0.0050138020887970924,
        0.018985945731401443,
        0.005414278712123632,
        0.004490226972848177,
        -0.015359192155301571,
        -0.06383088231086731,
        0.016742577776312828,
        0.0494045615196228,
        -0.03159873187541962,
        -0.03628327324986458,
        0.014090715907514095,
        -0.0358697846531868,
        0.056335434317588806,
        -0.03617248311638832,
        0.046012844890356064,
        -0.03229289874434471,
        0.018761910498142242,
        0.018296539783477783,
        -0.06282445043325424,
        0.05324504151940346,
        -0.01936357468366623,
        -0.034675005823373795,
        0.014061725698411465,
        0.0013666856102645397,
        0.008346742950379848,
        0.02488867938518524,
        -0.05513839051127434,
        0.037489231675863266,
        -0.04325052723288536,
        -0.04478548839688301,
        -0.025605952367186546,
        -0.04355483129620552,
        0.006289878860116005,
        -0.025542985647916794,
        -0.0024608082603663206,
        -0.01603100821375847,
        0.049174144864082336,
        0.03565077483654022,
        0.023060234263539314,
        0.018266668543219566,
        0.009218386374413967,
        -0.0355890728533268,
        0.03247533738613129,
        -0.02857922948896885,
        -0.01673845387995243,
        0.0040254187770187855,
        0.03728729486465454,
        0.002197445137426257,
        -0.040445536375045776,
        0.06457685679197311,
        0.04831160232424736,
        0.006278167944401503,
        -0.04475942254066467,
        -0.024504441767930984,
        -0.03966924920678139,
        -0.008578678593039513,
        -0.0030312405433505774,
        -0.07460466772317886,
        0.0005203072214499116,
        -0.015887003391981125,
        -0.0013163258554413915,
        0.032774318009614944,
        0.011363259516656399,
        -0.007048498373478651,
        0.019498273730278015,
        0.0006925917114131153,
        0.0002876121725421399,
        -0.03756578639149666,
        -0.007034094072878361,
        0.045077353715896606,
        -0.03667980805039406,
        0.005247876048088074,
        -0.03350580483675003,
        -0.012917260639369488,
        -0.004862640984356403,
        0.07516860216856003,
        -0.011440286412835121,
        -0.0033441472332924604,
        -0.02771652117371559,
        0.042053621262311935,
        -0.013535015285015106,
        -0.008412223309278488,
        0.009957939386367798,
        4.6137647586874664e-05,
        0.016725463792681694,
        -0.042534541338682175,
        -0.005824332125484943,
        0.012548494152724743,
        0.06324027478694916,
        0.058471325784921646,
        0.012648366391658783,
        0.010977307334542274,
        -0.03376036509871483,
        -0.008021718822419643,
        -0.03188610076904297,
        0.0040449402295053005,
        -0.013642556965351105,
        -0.010969584807753563,
        -0.03237627074122429,
        -0.005485645495355129,
        0.023048516362905502,
        0.021868495270609856,
        0.023457879200577736,
        -0.041645076125860214,
        -0.007643552962690592,
        -0.016513729467988014,
        -0.026079976931214333,
        0.0018206903478130698,
        0.010338572785258293,
        -0.02960909530520439,
        0.001388317672535777,
        0.0017528549069538713,
        0.0197619516402483,
        -0.05483217164874077,
        0.00970445666462183,
        -0.030911507084965706,
        0.016212770715355873,
        -0.022333398461341858,
        -0.020362919196486473,
        -0.02959774062037468,
        -0.08356910943984985,
        -0.054309964179992676,
        0.01843264512717724,
        0.004335958976298571,
        -0.029014870524406433,
        -0.047506771981716156,
        0.023322682827711105,
        0.007915782742202282,
        -0.009970549494028091,
        0.05328751727938652,
        -0.030525121837854385,
        -0.04472293332219124,
        0.0016316251130774617,
        0.010875038802623749,
        -0.018606947734951973,
        -0.02441270276904106,
        0.01538603100925684,
        0.08828327059745789,
        -0.026135854423046112,
        0.031490202993154526,
        -0.049319613724946976,
        -0.03579059988260269,
        -0.034165456891059875,
        -0.013755041174590588,
        -0.028591256588697433,
        -0.054263174533843994,
        -0.008392700925469398,
        0.03283258154988289,
        -0.015968456864356995,
        -0.0008679760503582656,
        -0.016986548900604248,
        -0.05616806820034981,
        -0.04809180647134781,
        -0.0012935093836858869,
        0.0563431978225708,
        0.08189935237169266,
        -0.049673885107040405,
        -0.03609490394592285,
        -0.02759559080004692,
        0.011833361349999905,
        0.034455109387636185,
        -0.029198750853538513,
        0.023525957018136978,
        -0.001847422681748867,
        0.011543869972229004,
        0.03941533342003822,
        -0.01178865134716034,
        -0.00319340405985713,
        -0.02370145358145237,
        -0.044884417206048965,
        0.05202989652752876,
        -0.03140869364142418,
        -0.0029140568803995848,
        0.05590568110346794,
        0.057692401111125946,
        0.07877886295318604,
        -0.19861407577991486,
        -0.1785733848810196,
        -0.09706556051969528,
        0.04380318522453308,
        0.12982557713985443,
        -0.06808463484048843,
        -0.17772310972213745,
        -0.15442845225334167,
        0.2112111896276474,
        0.08457809686660767,
        -0.210199773311615,
        -0.040708884596824646,
        0.15225748717784882,
        0.20699568092823029,
        -0.019708096981048584,
        0.03938852250576019,
        -0.13844208419322968,
        0.025619668886065483,
        0.23428191244602203,
        -0.046413589268922806,
        0.1494363397359848,
        -0.1567501574754715,
        -0.03385590761899948,
        0.04465396702289581,
        -0.23826925456523895,
        0.204173281788826,
        -0.000513218343257904,
        -0.1328510046005249,
        0.22524183988571167,
        -0.053814370185136795,
        -0.09223859757184982,
        -0.009068477898836136,
        -0.00815777387470007,
        0.14978161454200745,
        -0.07430607825517654,
        0.09458645433187485,
        0.09714483469724655,
        0.2436937838792801,
        -0.11691146343946457,
        -0.03379473835229874,
        -0.12151654064655304,
        0.09685263782739639,
        -0.08876268565654755,
        -0.0967235416173935,
        -0.0024672842118889093,
        0.12620598077774048,
        -0.15738336741924286,
        -0.16712574660778046,
        0.0003172155120410025,
        -0.0996740385890007,
        0.1142135038971901,
        0.09327526390552521,
        0.020806031301617622,
        -0.08175399899482727,
        0.12439998239278793,
        -0.08931053429841995,
        -0.2187315672636032,
        -0.2097061425447464,
        0.03073970228433609,
        0.014035523869097233,
        -0.012643198482692242,
        0.027613565325737,
        -0.04078402370214462,
        -0.003498715115711093,
        -0.03512173891067505,
        0.007988736033439636,
        0.029299648478627205,
        -0.025220325216650963,
        0.05058814585208893,
        0.005655593704432249,
        -0.00016029688413254917,
        -0.01966269686818123,
        -0.037819866091012955,
        -0.0010316191473975778,
        -0.02396354079246521,
        -0.023242520168423653,
        0.023680001497268677,
        0.032569874078035355,
        -0.0023647656198590994,
        -0.01638006418943405,
        0.015757888555526733,
        -0.004650340415537357,
        -0.014646656811237335,
        -8.737263851799071e-05,
        0.02526671439409256,
        -0.03084997460246086,
        -0.023751940578222275,
        -0.0870206207036972,
        0.017400626093149185,
        -0.026495913043618202,
        0.029564613476395607,
        0.04067597910761833,
        0.022523067891597748,
        -0.0022653951309621334,
        -0.04090067371726036,
        -0.015933165326714516,
        -0.029457347467541695,
        -0.023660341277718544,
        0.03833775967359543,
        -0.04124361649155617,
        0.020632583647966385,
        0.07167792320251465,
        -0.016487451270222664,
        0.03577478229999542,
        -0.018172593787312508,
        0.01289919950067997,
        0.02925698645412922,
        -0.04847878962755203,
        0.0008388840942643583,
        0.00536051020026207,
        -0.07288797944784164,
        0.002373064635321498,
        -0.04382365942001343,
        -0.032740458846092224,
        0.014607622288167477,
        -0.006238837260752916,
        -0.03404394909739494,
        -0.05357307195663452,
        0.031797558069229126,
        -0.020672019571065903,
        0.01089198887348175,
        -0.024230048060417175,
        -0.007708569522947073,
        0.025998946279287338,
        -0.0050361682660877705,
        -0.017582934349775314,
        0.0038954021874815226,
        -0.04866326227784157,
        -0.022255998104810715,
        0.02641553431749344,
        0.023615563288331032,
        -0.007518651429563761,
        0.012272666208446026,
        -0.017162514850497246,
        0.027167126536369324,
        0.0059770336374640465,
        -0.02355458214879036,
        -0.009402292780578136,
        -0.002578788436949253,
        -0.012648929841816425,
        -0.004323282279074192,
        -0.002025637309998274,
        0.016185259446501732,
        -0.0018504639156162739,
        0.0321410708129406,
        -0.04620878025889397,
        0.03737377002835274,
        0.016591381281614304,
        -0.011834701523184776,
        -0.030252991244196892,
        -0.03401178866624832,
        -0.00044589865137822926,
        0.002068954287096858,
        0.02686341665685177,
        -0.01577150821685791,
        -0.008243000134825706,
        0.038673195987939835,
        0.005851332563906908,
        -0.011166399344801903,
        -0.010320328176021576,
        0.01366172544658184,
        -0.005640953779220581,
        -0.025999611243605614,
        0.019400227814912796,
        0.048466768115758896,
        0.025872306898236275,
        -0.05347973853349686,
        -0.020499633625149727,
        -0.010598891414701939,
        -0.010816466063261032,
        -0.04360276833176613,
        -0.0012645438546314836,
        0.028694353997707367,
        0.02086666040122509,
        -0.003412979654967785,
        0.0025247388985008,
        -0.02836456708610058,
        -0.014296486973762512,
        -0.010040244087576866,
        0.016562923789024353,
        -0.023273823782801628,
        -0.01697394624352455,
        -0.05237859860062599,
        -0.032499849796295166,
        0.051873527467250824,
        0.021441269665956497,
        -0.01927131414413452,
        0.044812582433223724,
        0.026529477909207344,
        -0.002654115669429302,
        0.002543611219152808,
        0.042888447642326355,
        0.02444416843354702,
        0.025754373520612717,
        0.02352706901729107,
        0.00544089637696743,
        -0.03374331817030907,
        0.028528360649943352,
        0.032348908483982086,
        0.03820599243044853,
        0.02173725888133049,
        0.015487507916986942,
        0.026453498750925064,
        0.0046034567058086395,
        -0.01787715032696724,
        -0.0012806883314624429,
        -0.011798898689448833,
        -0.03171288222074509,
        -0.014363725669682026,
        0.0354669913649559,
        0.0037877862341701984,
        -0.052738290280103683,
        0.018772253766655922,
        -0.02804400585591793,
        -0.01603693701326847,
        -0.0020531420595943928,
        0.03998963534832001,
        -0.04262753948569298,
        0.016456354409456253,
        0.0012835910310968757,
        0.04574604704976082,
        -0.009208542294800282,
        0.0140934893861413,
        -0.02828022837638855,
        0.04725547134876251,
        -0.018277937546372414,
        -0.02347414754331112,
        0.000657579570543021,
        -0.01793290115892887,
        0.016377856954932213,
        -0.009934666566550732,
        -0.0018995602149516344,
        -0.0008830783190205693,
        0.024127189069986343,
        -0.04130746051669121,
        -0.0192837156355381,
        -0.008615206927061081,
        -0.0287195835262537,
        -0.003640637267380953,
        0.0245656818151474,
        -0.02505752444267273,
        0.017905516549944878,
        -0.06694939732551575,
        0.026366695761680603,
        0.013468170538544655,
        -0.003725204383954406,
        -0.030172528699040413,
        0.02284255251288414,
        0.011389350518584251,
        -0.019936900585889816,
        -0.007772575598210096,
        -0.0010157775832340121,
        0.005182794760912657,
        -0.014196458272635937,
        -0.027641452848911285,
        -0.04037797451019287,
        0.05059027299284935,
        -0.005610528402030468,
        -0.0017143299337476492,
        -0.0018498181598260999,
        -0.026865115389227867,
        0.012264464981853962,
        -0.029538393020629883,
        -0.0028174815233796835,
        -0.025358904153108597,
        0.00829317420721054,
        -0.04279594123363495,
        -0.003151936223730445,
        -0.011979438364505768,
        -0.013818114995956421,
        -0.015834586694836617,
        0.024315880611538887,
        0.014473706483840942,
        0.0011899222154170275,
        0.005219248589128256,
        0.02508859522640705,
        0.011240864172577858,
        -0.026192810386419296,
        0.004502222873270512,
        -0.040459807962179184,
        0.009189036674797535,
        0.01022601779550314,
        0.011889421381056309,
        -0.01327958982437849,
        0.015306858345866203,
        -0.029185878112912178,
        0.020443594083189964,
        -0.02630523219704628,
        0.034205663949251175,
        -0.008111384697258472,
        0.0013762591406702995,
        0.00029631293728016317,
        0.002509698737412691,
        -0.031583741307258606,
        0.0014264455530792475,
        -0.0037997555918991566,
        0.002784328069537878,
        -0.0005494062206707895,
        0.03031335212290287,
        0.0002223530173068866,
        -0.022428352385759354,
        -0.029951153323054314,
        -0.07453541457653046,
        -0.06417965143918991,
        -0.003169145667925477,
        0.0537448525428772,
        -0.0016473543364554644,
        0.011428369209170341,
        -0.03392611816525459,
        -0.01137889176607132,
        0.04998733103275299,
        0.06259313970804214,
        0.01027685310691595,
        -0.05928495526313782,
        -0.023237887769937515,
        -0.034572992473840714,
        0.04147159308195114,
        0.0065083373337984085,
        -0.04088006168603897,
        -0.01165708713233471,
        -0.008539838716387749,
        0.04145793989300728,
        -0.021069571375846863,
        -0.022950295358896255,
        0.03196420893073082,
        -0.016290027648210526,
        0.01657356508076191,
        0.0019541438668966293,
        0.09381574392318726,
        0.0322452075779438,
        0.046790942549705505,
        0.004506175871938467,
        -0.07515643537044525,
        0.05538734421133995,
        -0.06199602782726288,
        -0.027504585683345795,
        -0.04214620962738991,
        0.027047613635659218,
        0.05047359690070152,
        -0.021258069202303886,
        0.025049494579434395,
        -0.027138832956552505,
        0.014306324534118176,
        0.0191390048712492,
        -0.008342009037733078,
        -0.004349834285676479,
        -0.02470121718943119,
        -0.01782980002462864,
        0.03522384539246559,
        -0.015588570386171341,
        0.04317481070756912,
        0.0022900013718754053,
        0.0015015446115285158,
        -0.0031355111859738827,
        0.013132148422300816,
        0.049249064177274704,
        -0.05885474011301994,
        0.089873768389225,
        0.004233688581734896,
        -0.07076052576303482,
        -0.2063889056444168,
        0.006024918984621763,
        0.1983492523431778,
        -0.027042707428336143,
        -0.2844075560569763,
        0.13436129689216614,
        -0.1499878168106079,
        -0.0946386456489563,
        -0.08034082502126694,
        -0.0033009755425155163,
        -0.059211499989032745,
        0.18053947389125824,
        -0.0880894809961319,
        -0.1721791923046112,
        0.04204412177205086,
        -0.009260904043912888,
        0.1581926941871643,
        0.012687880545854568,
        -0.08143272250890732,
        0.05594443529844284,
        -0.11235429346561432,
        0.2348104566335678,
        0.13244420289993286,
        0.15137630701065063,
        -0.023958731442689896,
        -0.13706925511360168,
        -0.06178733706474304,
        -0.11022882163524628,
        -0.173556849360466,
        0.07073786109685898,
        -0.08959358930587769,
        0.1475677639245987,
        -0.004770265892148018,
        0.013388522900640965,
        0.08094172924757004,
        0.22249382734298706,
        0.15354858338832855,
        -0.04122468829154968,
        0.04067238047719002,
        0.10925308614969254,
        0.1535889059305191,
        -0.04100906476378441,
        -0.037571556866168976,
        0.16845382750034332,
        0.24146457016468048,
        -0.17582181096076965,
        0.046158771961927414,
        0.2559846043586731,
        -0.2641129493713379,
        0.0833132341504097,
        0.13817383348941803,
        -0.10623147338628769,
        -0.004110369365662336,
        0.2433047890663147,
        0.046354990452528,
        0.10109050571918488,
        0.036512188613414764,
        0.02425941824913025,
        -0.08886905014514923,
        -0.035400740802288055,
        0.006681912578642368,
        -0.012024580501019955,
        0.025808965787291527,
        0.07331361621618271,
        0.020495358854532242,
        0.017400767654180527,
        -0.004448635037988424,
        -0.0033903385046869516,
        0.013472089543938637,
        0.006491560954600573,
        -0.04040677472949028,
        0.004799729213118553,
        0.005224333144724369,
        -0.019191933795809746,
        0.016875075176358223,
        -0.01076513435691595,
        -0.000980669865384698,
        -0.01789984107017517,
        0.05845172703266144,
        -0.004977738950401545,
        0.032398175448179245,
        -0.002816444030031562,
        -0.022792305797338486,
        -0.004655033815652132,
        -0.022158486768603325,
        -0.03249949589371681,
        0.003119387896731496,
        0.014424216002225876,
        0.013862933963537216,
        -0.03637748584151268,
        -0.004082915373146534,
        0.0125114805996418,
        -0.0002581758890300989,
        -0.00864949356764555,
        0.04039889946579933,
        0.04947539418935776,
        -0.03417806327342987,
        0.006680961698293686,
        -0.009486932307481766,
        0.0023852854501456022,
        0.009855029173195362,
        -0.031252529472112656,
        -0.02426387555897236,
        -0.034237489104270935,
        -0.01309138536453247,
        -0.0036016928497701883,
        -0.0018645123345777392,
        0.013411086052656174,
        -0.017571208998560905,
        -0.007416109554469585,
        0.016262304037809372,
        -0.001108429511077702,
        -0.006684071850031614,
        0.03270694240927696,
        -0.0182367991656065,
        -0.01388508453965187,
        0.016466986387968063,
        0.036779291927814484,
        0.007693483028560877,
        0.01539935078471899,
        -0.015913689509034157,
        0.04583240672945976,
        -0.055343035608530045,
        0.011566687375307083,
        0.013950839638710022,
        -0.006219816394150257,
        0.024127084761857986,
        0.00788793619722128,
        -0.026823241263628006,
        0.0014290937688201666,
        -0.03699440881609917,
        -0.002902236534282565,
        0.018444625660777092,
        0.007056786213070154,
        -0.01955532841384411,
        0.02124023251235485,
        -0.006540311500430107,
        -0.013342988677322865,
        0.03730449452996254,
        -0.021635795012116432,
        -0.012921655550599098,
        -0.007383964955806732,
        0.024517318233847618,
        0.022474367171525955,
        0.01925419643521309,
        0.022076640278100967,
        -0.02259179949760437,
        0.027259057387709618,
        -0.006298641208559275,
        -0.0032161602284759283,
        -0.007718575187027454,
        0.012467533349990845,
        -0.02405966818332672,
        -0.01699710078537464,
        0.027424361556768417,
        -0.013171566650271416,
        0.02442759834229946,
        -0.01676807552576065,
        0.005586289335042238,
        -0.02412896789610386,
        -0.030345842242240906,
        -0.008901160210371017,
        0.009559059515595436,
        0.0049664974212646484,
        0.04578251764178276,
        -0.004124132916331291,
        -0.01101835910230875,
        -0.030490875244140625,
        0.04754555597901344,
        0.011967039667069912,
        -0.026723401620984077,
        0.0011110217310488224,
        -0.019383320584893227,
        -0.017986588180065155,
        -0.016797643154859543,
        0.0056914337910711765,
        -0.006194977089762688,
        -0.0034003930632025003,
        -0.009106517769396305,
        0.006818481255322695,
        -0.007219452876597643,
        -0.030027825385332108,
        -0.006286402698606253,
        -0.021653341129422188,
        0.007311585359275341,
        -0.036035310477018356,
        -0.0542089082300663,
        0.07201292365789413,
        -0.045180369168519974,
        0.0015335341449826956,
        -0.004674829542636871,
        -0.018032459542155266,
        -0.028934691101312637,
        -0.043883200734853745,
        -0.012552270665764809,
        -0.017446298152208328,
        -0.0010064014932140708,
        -0.02796310931444168,
        -0.014970534481108189,
        0.004727001301944256,
        -0.018490418791770935,
        0.00592435896396637,
        0.028543850407004356,
        -0.0063038477674126625,
        -0.01808559149503708,
        -0.017819592729210854,
        -0.03520083427429199,
        0.026113230735063553,
        0.006312250159680843,
        0.017862381413578987,
        0.011190246790647507,
        -0.025270583108067513,
        0.050060395151376724,
        -0.00663386145606637,
        0.014950641430914402,
        -0.01256122998893261,
        -0.04376758635044098,
        -0.04462428390979767,
        0.05930815264582634,
        0.06488323956727982,
        0.0010301753645762801,
        0.015675637871026993,
        0.005373672116547823,
        -0.00138790812343359,
        -0.0017919382080435753,
        -0.045658811926841736,
        0.06124131754040718,
        0.019225720316171646,
        -0.04782206565141678,
        0.032301634550094604,
        0.05318635702133179,
        -0.0032059354707598686,
        0.02690887823700905,
        0.05584241449832916,
        0.027241244912147522,
        -0.011703367345035076,
        0.03995124250650406,
        0.03280549868941307,
        -0.026479750871658325,
        -0.008683541789650917,
        -0.005144534632563591,
        0.00527309812605381,
        -0.024937355890870094,
        -0.01645071990787983,
        0.025789421051740646,
        0.00683117751032114,
        -0.03874867409467697,
        0.019705891609191895,
        0.01858559437096119,
        -0.008487246930599213,
        -0.006119517609477043,
        -0.009511514566838741,
        0.008200348354876041,
        -0.019483791664242744,
        0.012850851751863956,
        0.012586817145347595,
        -0.018712686374783516,
        0.021189209073781967,
        0.02330167032778263,
        -0.001040134229697287,
        0.03407944738864899,
        0.03373357281088829,
        0.006269400008022785,
        0.015216974541544914,
        0.005958240944892168,
        -0.027519583702087402,
        0.03885699808597565,
        0.024165162816643715,
        -0.03091595321893692,
        0.04830193519592285,
        -0.001520428224466741,
        -0.01319813635200262,
        0.04501151293516159,
        0.004981508478522301,
        0.02721109241247177,
        0.004975566640496254,
        0.02632937952876091,
        0.020816998556256294,
        -0.023784052580595016,
        -0.00483948178589344,
        0.02409934438765049,
        -0.010276460088789463,
        0.013925718143582344,
        -0.03477688506245613,
        0.038146011531353,
        0.007699011825025082,
        0.03448287397623062,
        -0.01898701675236225,
        -0.002730009378865361,
        0.006236974149942398,
        -0.039195381104946136,
        -0.0006797004607506096,
        -0.008749349042773247,
        0.002300935098901391,
        -0.028324933722615242,
        0.028162255883216858,
        0.032172564417123795,
        -0.038594845682382584,
        -0.006663951091468334,
        0.031745631247758865,
        -0.0067277466878294945,
        0.008837249130010605,
        0.049583304673433304,
        0.03367232903838158,
        -0.052068475633859634,
        0.03558650240302086,
        -0.015032430179417133,
        0.0181915033608675,
        -0.029577333480119705,
        -0.03191503509879112,
        0.012873239815235138,
        0.009241413325071335,
        -0.0156662967056036,
        0.018150264397263527,
        0.021343355998396873,
        -0.046456895768642426,
        -0.04855180159211159,
        0.03604387491941452,
        0.040735285729169846,
        -0.007849053479731083,
        -0.03618689253926277,
        -0.017855972051620483,
        0.0016684024594724178,
        -0.028613494709134102,
        -0.027673261240124702,
        -0.054107945412397385,
        -0.07332486659288406,
        -0.0456201396882534,
        -0.036773379892110825,
        0.02233203873038292,
        -0.015559643507003784,
        -0.03545209392905235,
        -0.002259226515889168,
        1.8888627892010845e-05,
        -0.03252353519201279,
        -0.013010789640247822,
        0.12426161020994186,
        -0.040884602814912796,
        0.029013853520154953,
        -0.022805647924542427,
        -0.018272479996085167,
        -0.007981691509485245,
        -0.016854289919137955,
        -0.006899008061736822,
        0.005808352027088404,
        -0.015066631138324738,
        -0.046358879655599594,
        0.008493892848491669,
        -0.03996835649013519,
        0.02427893877029419,
        0.031677477061748505,
        0.0022034363355487585,
        -0.0013048166874796152,
        -0.051817432045936584,
        -0.008291050791740417,
        -0.005963345058262348,
        -0.008700916543602943,
        -0.03602856025099754,
        -0.009316685609519482,
        -0.03215499967336655,
        0.018579671159386635,
        -0.07837782800197601,
        -0.025122420862317085,
        0.020346445962786674,
        0.014723203144967556,
        0.01060799602419138,
        0.0018828065367415547,
        -0.04708593338727951,
        0.007332792971283197,
        0.020383190363645554,
        -0.010083569213747978,
        0.011166331358253956,
        0.04614245891571045,
        0.0069859870709478855,
        -0.02573360875248909,
        0.013841032050549984,
        0.003346993587911129,
        -0.013172741048038006,
        -0.011913328431546688,
        -0.0031156453769654036,
        0.018191374838352203,
        -0.01809118129312992,
        -0.03332413733005524,
        0.030473720282316208,
        -0.010965056717395782,
        0.02238130010664463,
        0.024419531226158142,
        -0.003841536119580269,
        0.013479897752404213,
        0.0012281768722459674,
        0.02122502215206623,
        -0.008996997959911823,
        -0.011858426034450531,
        -0.01870693266391754,
        0.02440553531050682,
        0.019267303869128227,
        -0.04048332944512367,
        -0.0067350054159760475,
        0.02938602864742279,
        0.0061533828265964985,
        0.034890808165073395,
        -0.01678888499736786,
        0.02228359505534172,
        -0.0036953415255993605,
        0.01093541644513607,
        -0.005817388650029898,
        -0.05540289729833603,
        -0.03211095556616783,
        0.043678779155015945,
        -0.02044343203306198,
        0.03240713104605675,
        -0.0007345580961555243,
        0.03508016839623451,
        0.007825176231563091,
        -0.0016907543176785111,
        -0.003605628851801157,
        -0.02127419225871563,
        0.0029786955565214157,
        -0.047272831201553345,
        -0.01348938886076212,
        -0.06543216109275818,
        -0.07000570744276047,
        -0.02243858017027378,
        -0.06612259894609451,
        -0.025425909087061882,
        -0.017832139506936073,
        0.007623716723173857,
        0.08236826211214066,
        0.0115159647539258,
        -0.012379115447402,
        -0.014230042695999146,
        -0.0611540712416172,
        -0.05302351713180542,
        -0.028406232595443726,
        0.029944194480776787,
        0.009579380974173546,
        -0.049559369683265686,
        0.018162926658988,
        -0.07882176339626312,
        -0.038581546396017075,
        0.05781405791640282,
        -0.009497787803411484,
        -0.026831522583961487,
        -0.07167013734579086,
        0.0021454438101500273,
        -0.02268388122320175,
        0.04053075239062309,
        -0.000259083608398214,
        -0.006445715669542551,
        -0.06148461624979973,
        0.020981773734092712,
        0.09723295271396637,
        0.1182006299495697,
        -0.039514265954494476,
        -0.061613719910383224,
        -0.027184877544641495,
        -0.016080841422080994,
        0.026123054325580597,
        -0.08446794003248215,
        0.08916427940130234,
        -0.050657980144023895,
        -0.03377457708120346,
        -0.021762486547231674,
        0.025943202897906303,
        0.022085202857851982,
        0.02842770516872406,
        0.06504612416028976,
        -0.04466193914413452,
        0.03937602788209915,
        -0.0007765167392790318,
        0.026340799406170845,
        -0.003399767680093646,
        -0.009784872643649578,
        0.0786774680018425,
        -0.025769058614969254,
        -0.030914954841136932,
        0.07791455090045929,
        -0.052445560693740845,
        -0.030475756153464317,
        0.006297228392213583,
        -0.005982706323266029,
        -0.0007973082829266787,
        0.006799210328608751,
        -0.043543726205825806,
        -0.032429806888103485,
        0.020880943164229393,
        -0.018240170553326607,
        -0.012601637281477451,
        0.0008012354373931885,
        -0.0014427711721509695,
        0.0044051907025277615,
        0.024553995579481125,
        -0.016119543462991714,
        0.025706488639116287,
        0.005532166920602322,
        -0.020843952894210815,
        -0.00826802384108305,
        -0.0022631639149039984,
        -0.026570377871394157,
        -0.004131233785301447,
        -0.011961829848587513,
        -0.010943210683763027,
        0.01938054710626602,
        0.025201156735420227,
        -0.009072752669453621,
        -0.010748830623924732,
        -0.017760872840881348,
        -0.022266581654548645,
        0.010603453032672405,
        -0.024193620309233665,
        -0.024438105523586273,
        0.042238373309373856,
        0.028437938541173935,
        -0.014016030356287956,
        0.001159505220130086,
        0.034610722213983536,
        -0.0308391060680151,
        0.01795383356511593,
        -0.010709485970437527,
        0.024315396323800087,
        0.00025608079158701,
        0.018549101427197456,
        -0.03736506775021553,
        0.03024809993803501,
        0.016336968168616295,
        -0.00907736923545599,
        0.00944067444652319,
        -0.027712883427739143,
        0.009522461332380772,
        0.023885220289230347,
        -0.0015012092189863324,
        0.0006473500980064273,
        0.008345798589289188,
        -0.0049361493438482285,
        0.016385940834879875,
        -0.004606654867529869,
        0.0019876526203006506,
        0.00774075323715806,
        -0.004533445928245783,
        0.04282260686159134,
        0.024368969723582268,
        -0.01450656820088625,
        0.013068635948002338,
        0.006700390949845314,
        -0.0028836107812821865,
        -0.045990679413080215,
        0.009993764571845531,
        0.00422053225338459,
        0.04383328557014465,
        -0.005622372031211853,
        0.008226092904806137,
        0.025269560515880585,
        0.024734169244766235,
        0.023135822266340256,
        0.010712206363677979,
        -0.009212144650518894,
        -0.018049700185656548,
        -0.008703062310814857,
        -0.016363320872187614,
        0.02994818240404129,
        -0.009021465666592121,
        -0.008950786665081978,
        0.038643840700387955,
        0.026496103033423424,
        -0.004328005947172642,
        -0.0007869660621508956,
        0.006600311025977135,
        0.032550811767578125,
        -0.019901217892766,
        -4.1412578866584226e-05,
        -0.023421987891197205,
        -0.010325180366635323,
        0.030347783118486404,
        0.0016122539527714252,
        0.02301383949816227,
        -0.0066867368295788765,
        -0.019923439249396324,
        -0.005117657594382763,
        0.01182338036596775,
        -0.024585390463471413,
        0.010058148764073849,
        0.032613493502140045,
        0.008313138037919998,
        -0.0019412428373470902,
        0.02678651735186577,
        -0.0035622373688966036,
        0.015102140605449677,
        -0.024150237441062927,
        0.035624824464321136,
        -0.0062196808867156506,
        -0.001303722383454442,
        0.0003565896477084607,
        0.037163954228162766,
        0.0005652389954775572,
        0.018273647874593735,
        -0.025008857250213623,
        0.013262692838907242,
        -0.017838994041085243,
        0.02103496342897415,
        -0.010576939210295677,
        0.02901005931198597,
        0.009105940349400043,
        -0.03875819593667984,
        0.014192457310855389,
        -0.0027182181365787983,
        9.813502401812002e-05,
        -0.0068087042309343815,
        -0.02672700583934784,
        -0.03468496352434158,
        -0.023587748408317566,
        -0.03734012320637703,
        -0.024957997724413872,
        -0.04535125568509102,
        0.02393343113362789,
        -0.02528717741370201,
        -0.015379617922008038,
        0.011944794096052647,
        0.01592412032186985,
        0.010460100136697292,
        0.02598019503057003,
        0.030522268265485764,
        0.0021002190187573433,
        -0.019065411761403084,
        -0.019641397520899773,
        0.009942878969013691,
        0.014595829881727695,
        0.015157409012317657,
        0.027505697682499886,
        -0.027069080621004105,
        0.004121569450944662,
        0.018572956323623657,
        -0.08618512004613876,
        -0.022384630516171455,
        -0.0042643495835363865,
        0.04986657202243805,
        0.010101131163537502,
        0.028614353388547897,
        -0.00044551948667503893,
        0.012723633088171482,
        0.023309072479605675,
        0.017930738627910614,
        -0.01936671882867813,
        0.038271792232990265,
        -0.036651164293289185,
        0.02488565817475319,
        -0.0009212305885739625,
        -0.0345505066215992,
        0.031812410801649094,
        -0.03376346454024315,
        -0.02948632277548313,
        -0.032791294157505035,
        -0.002835632534697652,
        -0.016994252800941467,
        -0.005846998654305935,
        -0.049983855336904526,
        0.026990806683897972,
        0.023827163502573967,
        0.00378987705335021,
        -0.035137027502059937,
        -0.1078495904803276,
        -0.06511575728654861,
        0.08439292758703232,
        0.012012087740004063,
        0.0867743045091629,
        0.09709994494915009,
        -0.06738509237766266,
        -0.07846426218748093,
        0.034530557692050934,
        0.0355711504817009,
        -0.054414477199316025,
        -0.14874601364135742,
        -0.05499948188662529,
        0.041506215929985046,
        0.04662363603711128,
        0.05416896566748619,
        -0.15119753777980804,
        0.035934560000896454,
        -0.013008602894842625,
        -0.04666021466255188,
        0.054006241261959076,
        -0.0003498079313430935,
        -0.02203550934791565,
        -0.05860495567321777,
        -0.07470806688070297,
        -0.00933136697858572,
        0.06254440546035767,
        0.012996041215956211,
        -0.06612101942300797,
        -0.008682943880558014,
        0.12701265513896942,
        0.007431264966726303,
        -0.01721673458814621,
        0.074588842689991,
        -0.043849095702171326,
        -0.029537856578826904,
        0.012505508959293365,
        0.13099630177021027,
        0.026838837191462517,
        -0.06022016331553459,
        0.007173354737460613,
        0.11880937218666077,
        -0.03824395686388016,
        -0.09204850345849991,
        -0.12289335578680038,
        0.08514354377985,
        -0.0899001955986023,
        -0.016228362917900085,
        -0.042553577572107315,
        0.09406422078609467,
        0.05249585583806038,
        -0.04449575021862984,
        0.0041087307035923,
        0.049113187938928604,
        -0.06049202010035515,
        0.012778123840689659,
        -0.10045714676380157,
        0.08443024754524231,
        -0.07276804000139236,
        -0.007673974148929119,
        0.032196152955293655,
        -0.11208820343017578,
        0.025108421221375465,
        -0.06563043594360352,
        -0.005380415357649326,
        0.001598442904651165,
        0.03122797980904579,
        0.022051475942134857,
        -0.016759704798460007,
        -0.07056369632482529,
        0.019630737602710724,
        0.00022157021157909185,
        -0.03089233860373497,
        0.01933952048420906,
        0.02995038591325283,
        -0.06194710358977318,
        0.010926296934485435,
        0.05880337953567505,
        -0.03128831833600998,
        0.024438805878162384,
        0.05446328967809677,
        0.03668217360973358,
        -0.014039511792361736,
        -0.053007662296295166,
        -0.020934464409947395,
        0.023280678316950798,
        0.011776820756494999,
        0.019641216844320297,
        0.016691401600837708,
        0.05430915579199791,
        -0.0856301411986351,
        -0.018965963274240494,
        -0.019564758986234665,
        -0.09015677124261856,
        0.06909603625535965,
        -0.09228184819221497,
        0.07404998689889908,
        -0.07561148703098297,
        0.04681294783949852,
        0.03199777379631996,
        -0.0751122459769249,
        -0.0565362274646759,
        -0.010247157886624336,
        0.009893786162137985,
        0.012086372822523117,
        -0.05390284210443497,
        0.026402520015835762,
        -0.0014213955728337169,
        0.01702498272061348,
        0.013865993358194828,
        0.02581193298101425,
        9.046540799317881e-05,
        0.0024651282001286745,
        0.03551386669278145,
        0.01926826685667038,
        -0.03701912239193916,
        -0.0019409896340221167,
        -0.0018370886100456119,
        0.02704872190952301,
        0.03227052837610245,
        0.05100565031170845,
        -0.015463518910109997,
        -0.03130880370736122,
        0.0027265874668955803,
        -0.025353705510497093,
        0.03388693183660507,
        -0.03128333389759064,
        0.010825896635651588,
        0.011114518158137798,
        0.01506468653678894,
        0.011309398338198662,
        -0.019630158320069313,
        0.0053905462846159935,
        -0.01534897368401289,
        0.016071883961558342,
        0.011500108055770397,
        -0.0022892276756465435,
        0.008554513566195965,
        0.016772430390119553,
        -0.019741429015994072,
        -0.006165326572954655,
        0.04205577075481415,
        0.024065403267741203,
        -0.00501793110743165,
        0.032410286366939545,
        0.014838812872767448,
        -0.016469808295369148,
        -0.032573360949754715,
        0.0062056779861450195,
        0.020552324131131172,
        0.011897840537130833,
        -0.03524080663919449,
        0.006229358725249767,
        0.008713082410395145,
        -0.019784700125455856,
        -0.0013474150327965617,
        0.003087032353505492,
        -0.022793596610426903,
        -0.011272708885371685,
        -0.03363345190882683,
        0.008896373212337494,
        -0.030552884563803673,
        0.020998958498239517,
        -0.02673022821545601,
        0.017120808362960815,
        0.021792231127619743,
        -0.01304683368653059,
        0.03911012038588524,
        -0.0011475374922156334,
        -0.0039144414477050304,
        0.015418375842273235,
        0.016963128000497818,
        0.0012500205775722861,
        -0.028086967766284943,
        0.030094986781477928,
        0.0164425577968359,
        0.004958974663168192,
        0.008302949368953705,
        0.004160300362855196,
        -0.005263401195406914,
        0.02196562848985195,
        0.062398336827754974,
        0.02277534268796444,
        -0.22838094830513,
        -0.05384016036987305,
        0.22895009815692902,
        0.11652284860610962,
        0.0016397021245211363,
        -0.18012672662734985,
        -0.110536590218544,
        -0.20099930465221405,
        0.06834542006254196,
        0.18298424780368805,
        0.0705481693148613,
        -0.20593446493148804,
        0.05517245829105377,
        0.007868635468184948,
        0.010497705079615116,
        -0.1548902541399002,
        -0.0014031225582584739,
        -0.13038253784179688,
        -0.07241987437009811,
        0.16558429598808289,
        -0.04019490256905556,
        0.16210608184337616,
        -0.13531549274921417,
        -0.0569886788725853,
        -0.10887301713228226,
        0.08946122974157333,
        0.07945582270622253,
        0.1101687029004097,
        0.037080757319927216,
        -0.15653583407402039,
        -0.02327938936650753,
        0.03128267452120781,
        0.18007950484752655,
        -0.05789542198181152,
        -0.19626373052597046,
        -0.130147784948349,
        -0.023473981767892838,
        0.03712968900799751,
        -0.0421656034886837,
        -0.14069774746894836,
        -0.11674035340547562,
        -0.010231849737465382,
        0.12837642431259155,
        -0.15711969137191772,
        -0.059344030916690826,
        0.14858587086200714,
        -0.2044205516576767,
        0.16711978614330292,
        0.0715145394206047,
        0.3431769609451294,
        -0.09700533002614975,
        0.10938934981822968,
        0.004046251531690359,
        0.028225690126419067,
        0.148106187582016,
        0.07869792729616165,
        0.07044829428195953,
        0.012025615200400352,
        -0.03990430757403374,
        -0.010177520103752613,
        -0.02395472303032875,
        -0.024559907615184784,
        0.010924680158495903,
        0.04960637167096138,
        0.01333098579198122,
        0.02991044893860817,
        -0.012524088844656944,
        0.046048518270254135,
        0.030413437634706497,
        0.01806938834488392,
        0.01984778232872486,
        -0.014398126862943172,
        -0.002334852470085025,
        0.013854497112333775,
        -0.004807435441762209,
        -0.00024536196724511683,
        -0.0046198442578315735,
        -0.0066140638664364815,
        -0.030325228348374367,
        -0.033835574984550476,
        0.03287157043814659,
        -0.031219860538840294,
        0.012242686003446579,
        -0.04454059898853302,
        0.013622969388961792,
        0.0005507472669705749,
        0.021154524758458138,
        -0.03627703711390495,
        0.002584415255114436,
        0.01337522454559803,
        -0.0009635985479690135,
        0.023138299584388733,
        -0.012203156016767025,
        -0.0008117899997159839,
        -0.010776220820844173,
        -0.007352482061833143,
        -0.025863798335194588,
        0.012476244941353798,
        -0.02167688123881817,
        -0.02112242765724659,
        -0.028120195493102074,
        0.016558261588215828,
        0.016703525558114052,
        0.015477338805794716,
        -0.007223987951874733,
        0.021634895354509354,
        -0.028182998299598694,
        -0.007278781849890947,
        -0.018949110060930252,
        -0.00039013868081383407,
        -0.03505970165133476,
        0.023075565695762634,
        -0.015969907864928246,
        -0.02469750866293907,
        -0.0015799064422026277,
        -0.01063358224928379,
        0.026233311742544174,
        -0.014368243515491486,
        0.022825678810477257,
        -0.004575277678668499,
        -0.02410193718969822,
        0.0014238589210435748,
        0.008204028941690922,
        -0.021720852702856064,
        -0.019197305664420128,
        -0.014672981575131416,
        -0.005650723353028297,
        -0.010936755686998367,
        0.02469252049922943,
        -0.02353440597653389,
        0.011600123718380928,
        -0.0001950628648046404,
        0.018800368532538414,
        0.00018042339070234448,
        0.01205396093428135,
        0.00913937482982874,
        -0.04813113808631897,
        -0.07185728847980499,
        -0.024613220244646072,
        -0.01196020282804966,
        -0.007370372768491507,
        0.014050852507352829,
        0.003912275191396475,
        -0.03907173126935959,
        0.031667787581682205,
        0.010505879297852516,
        0.032156866043806076,
        -0.03369125351309776,
        0.03609312325716019,
        -0.014121880754828453,
        -0.03683876246213913,
        -0.004683800972998142,
        -0.01566728577017784,
        0.02563963457942009,
        -0.004214111249893904,
        0.004430404398590326,
        0.029185358434915543,
        -0.0003618558112066239,
        -0.015109186060726643,
        0.007105915807187557,
        0.005011736415326595,
        0.042362041771411896,
        -0.022372229024767876,
        -0.046164803206920624,
        0.019568325951695442,
        0.008893108926713467,
        0.006953459698706865,
        0.022366518154740334,
        0.02596159651875496,
        0.00022702262504026294,
        -0.014503035694360733,
        0.006002485286444426,
        -0.0009251272422261536,
        -0.039943303912878036,
        -0.019793706014752388,
        -0.022128384560346603,
        -0.006530855316668749,
        -0.05529030039906502,
        0.1520274430513382,
        0.0018964075716212392,
        -0.05624529719352722,
        0.09930601716041565,
        0.12630516290664673,
        -0.10434715449810028,
        0.16711778938770294,
        0.16231927275657654,
        -0.09338508546352386,
        -0.05109739303588867,
        0.2064725160598755,
        -0.11994953453540802,
        -0.01387505978345871,
        0.028469376266002655,
        0.07172368466854095,
        -0.16364526748657227,
        -0.09426999092102051,
        0.07852520048618317,
        0.07276207208633423,
        0.13554051518440247,
        0.06589692085981369,
        0.24764055013656616,
        0.060661569237709045,
        0.16943873465061188,
        0.26654544472694397,
        0.048269614577293396,
        -0.1375897377729416,
        0.22847558557987213,
        -0.2208147943019867,
        -0.1597660332918167,
        -0.14278922975063324,
        -0.08456046879291534,
        0.08221026510000229,
        -0.20247386395931244,
        -0.1574186086654663,
        0.10853809118270874,
        -0.15030165016651154,
        -0.1792377233505249,
        0.06842716038227081,
        0.03162848576903343,
        0.21735094487667084,
        0.19084280729293823,
        -0.09540833532810211,
        0.03132667392492294,
        -0.0008460170938633382,
        0.021556906402111053,
        0.03592532128095627,
        0.19240568578243256,
        -0.15734107792377472,
        -0.10960949957370758,
        -0.13944274187088013,
        -0.11105941236019135,
        0.16541555523872375,
        0.18819257616996765,
        -0.08224952220916748,
        0.1863751858472824,
        -0.01768193393945694,
        0.08586451411247253,
        -0.05760424956679344,
        -0.020993268117308617,
        -0.0241532064974308,
        0.04794437438249588,
        -0.05055881291627884,
        0.01092476025223732,
        0.06346510350704193,
        -0.08479342609643936,
        -0.02515002340078354,
        -0.04639637470245361,
        -0.0365402027964592,
        -0.018602687865495682,
        0.04808554798364639,
        0.059764470905065536,
        -0.019879698753356934,
        -0.00925025250762701,
        -0.03700263053178787,
        0.02148851566016674,
        0.061610329896211624,
        -0.0552181713283062,
        0.015422819182276726,
        0.05668828263878822,
        -0.01303658913820982,
        0.0021556417923420668,
        0.0007692501530982554,
        0.03299809619784355,
        -0.010006261989474297,
        -0.020673684775829315,
        0.02393157035112381,
        0.022176038473844528,
        0.006594622042030096,
        0.005488176364451647,
        0.035773687064647675,
        0.021490231156349182,
        0.029065463691949844,
        0.004174763802438974,
        -0.035893455147743225,
        -0.004262348171323538,
        -0.036185380071401596,
        0.002908886643126607,
        0.010817217640578747,
        -0.06159224733710289,
        0.02072971686720848,
        -0.05045287683606148,
        -0.03999265655875206,
        -0.02284872531890869,
        -0.026687534525990486,
        0.03449277952313423,
        0.024288639426231384,
        0.012052767910063267,
        -0.041123855859041214,
        0.028199927881360054,
        -0.024969814345240593,
        -0.003573777386918664,
        0.03638451546430588,
        -0.0160776749253273,
        0.04577722027897835,
        -0.02054176665842533,
        0.0054868059232831,
        -0.03812916576862335,
        0.03392515331506729,
        0.12592799961566925,
        0.03772442787885666,
        0.0008854260086081922,
        -0.023636706173419952,
        -0.06544405966997147,
        -0.02088351547718048,
        -0.16555523872375488,
        0.02980034612119198,
        0.01846182532608509,
        -0.021545840427279472,
        -0.022221120074391365,
        0.10276193171739578,
        -0.0742223709821701,
        -0.037103015929460526,
        0.015433885157108307,
        -0.029791006818413734,
        0.04662878066301346,
        0.043014995753765106,
        0.012551853433251381,
        -0.05324308201670647,
        0.04361506924033165,
        0.05465802922844887,
        -0.057298894971609116,
        0.05257940664887428,
        -0.016182249411940575,
        0.009490368887782097,
        -0.01619899272918701,
        0.03437667712569237,
        -0.005438933148980141,
        0.08493173867464066,
        -0.04712744429707527,
        0.031180232763290405,
        -0.020659994333982468,
        0.03757680207490921,
        -0.05063310265541077,
        -0.0266704298555851,
        0.04202023148536682,
        0.13978759944438934,
        -0.03362385928630829,
        0.04534069448709488,
        0.12191478908061981,
        0.06677261739969254,
        0.03702281415462494,
        0.02863198332488537,
        0.07534240186214447,
        0.01867915503680706,
        0.07058480381965637,
        0.00014570307394023985,
        0.04961421340703964,
        0.08020716905593872,
        -0.028777580708265305,
        0.01628686487674713,
        0.004199590999633074,
        0.04953049123287201,
        0.048053640872240067,
        -0.01269377488642931,
        -0.1180935800075531,
        -0.0637855976819992,
        -0.0024607342202216387,
        -0.06518968194723129,
        -0.07616302371025085,
        0.05107194930315018,
        0.018734576180577278,
        -0.02818930894136429,
        -0.022953078150749207,
        -0.07836117595434189,
        0.0016834442503750324,
        -0.006496991962194443,
        0.0356619618833065,
        -0.024007562547922134,
        -0.00782551895827055,
        -0.03109133057296276,
        -0.005295849405229092,
        -0.016813164576888084,
        -0.037072960287332535,
        -0.014652022160589695,
        0.01925520785152912,
        -0.017293263226747513,
        0.021706676110625267,
        0.03824397549033165,
        -0.03250022977590561,
        0.04051234573125839,
        -0.05440140888094902,
        -0.017343301326036453,
        -0.012437457218766212,
        -0.025035932660102844,
        0.06417115777730942,
        -0.07373528182506561,
        0.10872520506381989,
        0.012699794955551624,
        -0.0028650269377976656,
        -0.06651225686073303,
        0.003594593843445182,
        0.02088719606399536,
        -0.011858014389872551,
        0.030604278668761253,
        -0.02064422331750393,
        -0.08138710260391235,
        0.04634863883256912,
        -0.0016733160009607673,
        0.029822034761309624,
        -0.03521890938282013,
        -0.08509102463722229,
        0.01497612800449133,
        0.009794431738555431,
        -0.06028396636247635,
        -0.0033857969101518393,
        0.004528757184743881,
        0.013301507569849491,
        -0.06745979934930801,
        -0.027076037600636482,
        -0.03129994496703148,
        0.0019384691258892417,
        0.017253410071134567,
        -0.03418966382741928,
        0.009511706419289112,
        0.023514073342084885,
        0.08802742511034012,
        0.07705706357955933,
        0.08538711816072464,
        -0.05643993243575096,
        0.011467848904430866,
        0.042701855301856995,
        0.04045486822724342,
        0.011302199214696884,
        -0.08232660591602325,
        0.02190505899488926,
        0.012191606685519218,
        -0.016161924228072166,
        -0.0026394056621938944,
        -0.01323276199400425,
        0.018594995141029358,
        0.015356282703578472,
        -0.022501889616250992,
        -0.008278862573206425,
        0.008498752489686012,
        -0.036863621324300766,
        0.04961292818188667,
        -0.0108743105083704,
        -0.016817906871438026,
        0.025816522538661957,
        -0.03814775496721268,
        -0.0510825477540493,
        0.020458731800317764,
        -0.045527342706918716,
        0.033696796745061874,
        -0.04078367352485657,
        0.013866166584193707,
        -0.02453993633389473,
        0.01814497634768486,
        -0.04037582129240036,
        -0.057634178549051285,
        -0.02144705317914486,
        -0.08117447048425674,
        -0.019864587113261223,
        0.009966029785573483,
        0.0031227467115968466,
        0.055229369550943375,
        0.04027937725186348,
        -0.017845142632722855,
        0.031846269965171814,
        -0.006929856259375811,
        0.012922855094075203,
        0.016106583178043365,
        -0.03181203827261925,
        -0.018760090693831444,
        -0.07189477235078812,
        -0.027189623564481735,
        0.00815308466553688,
        0.0036900166887789965,
        0.01612422801554203,
        0.010671923868358135,
        -0.0025500222109258175,
        -0.019649919122457504,
        -0.04235130548477173,
        -0.09561040252447128,
        -0.014782208018004894,
        -0.024843869730830193,
        0.03519098088145256,
        0.04891110584139824,
        -0.06117704138159752,
        -0.008697306737303734,
        -0.007644202560186386,
        -0.03469764068722725,
        -0.029481546953320503,
        0.03698189556598663,
        0.03011440299451351,
        -0.0100148506462574,
        0.012395421043038368,
        -0.000784823321737349,
        0.0014744726940989494,
        0.07492649555206299,
        -0.04262901470065117,
        -0.04166952893137932,
        -0.022587938234210014,
        -0.013650412671267986,
        0.009397294372320175,
        0.10732757300138474,
        -0.011147561483085155,
        0.03605834022164345,
        -0.003572126617655158,
        -0.004771118052303791,
        -0.010342307388782501,
        -0.013713371939957142,
        0.051465749740600586,
        0.01111341081559658,
        0.04986352100968361,
        -0.014173734933137894,
        0.011742834001779556,
        0.06642980873584747,
        0.004318828694522381,
        -0.010925193317234516,
        0.007184756454080343,
        -0.0545540452003479,
        0.03894650936126709,
        -0.04207400232553482,
        -0.018288394436240196,
        -0.02180112898349762,
        0.03385933116078377,
        -0.010356077924370766,
        0.05945253744721413,
        0.07177563011646271,
        0.018254389986395836,
        -0.024311205372214317,
        -0.03771094232797623,
        0.038232434540987015,
        0.01383820828050375,
        0.04840132221579552,
        -0.020099030807614326,
        0.036588702350854874,
        0.0162039827555418,
        -0.018683260306715965,
        -0.0013532430166378617,
        0.004579200409352779,
        0.004476476460695267,
        0.0005277121090330184,
        0.0006501178140752017,
        -0.035527460277080536,
        0.015161190181970596,
        -0.03332403674721718,
        -0.04785553738474846,
        0.0627465695142746,
        -0.007980451919138432,
        -0.04792521148920059,
        0.043110787868499756,
        0.001217236858792603,
        0.06252395361661911,
        -0.030621979385614395,
        0.011211714707314968,
        -0.033918507397174835,
        0.014216328039765358,
        0.06834922730922699,
        -0.040378205478191376,
        0.042708247900009155,
        -0.036495741456747055,
        -0.012482564896345139,
        0.00469160033389926,
        0.023466618731617928,
        -0.019639264792203903,
        0.008648654446005821,
        0.04461232200264931,
        0.0012539918534457684,
        0.05387785658240318,
        0.00524113280698657,
        0.0020865940023213625,
        -0.02596343867480755,
        -0.04981847479939461,
        -0.0006091578397899866,
        0.05435384064912796,
        0.07786574214696884,
        -0.007223509717732668,
        -0.05032861977815628,
        0.009937075898051262,
        -0.06839168071746826,
        -0.015004690736532211,
        -0.01868887059390545,
        0.041895896196365356,
        -0.06062182039022446,
        -0.032511137425899506,
        0.05564705654978752,
        -0.003690618323162198,
        0.048570215702056885,
        -0.006013807840645313,
        -0.022826235741376877,
        -0.006771580781787634,
        -0.06563659757375717,
        0.004453026223927736,
        0.026710957288742065,
        0.008986121043562889,
        -0.02312137559056282,
        -0.0025143574457615614,
        -0.028002368286252022,
        0.0026331297121942043,
        0.011280272156000137,
        -0.0489952377974987,
        -0.04291003197431564,
        -0.017489712685346603,
        -0.014750001020729542,
        0.036533672362565994,
        -0.038279276341199875,
        0.009618192911148071,
        0.0259661003947258,
        0.013320204801857471,
        0.023292621597647667,
        0.014563757926225662,
        0.02057875692844391,
        0.029875922948122025,
        0.004635364282876253,
        0.018761757761240005,
        0.013039946556091309,
        -0.050260066986083984,
        0.000755465414840728,
        -0.006274810992181301,
        -0.0008404204854741693,
        0.01286641787737608,
        0.012538504786789417,
        0.018312964588403702,
        -0.03143586590886116,
        -0.02892983891069889,
        -0.04472645744681358,
        0.05140949413180351,
        0.018863357603549957,
        -0.04936455190181732,
        0.033696211874485016,
        -0.031581129878759384,
        0.03955201432108879,
        -0.014200766570866108,
        -0.003921596799045801,
        0.0068842703476548195,
        -0.011066121980547905,
        0.06365664303302765,
        -0.0011707691010087729,
        0.05470084398984909,
        0.06068369001150131,
        0.04058687016367912,
        -0.045542147010564804,
        0.015980424359440804,
        0.007005470804870129,
        0.04116211086511612,
        0.018366806209087372,
        0.014050045982003212,
        0.02122371271252632,
        -0.004687827080488205,
        -0.006645119749009609,
        -0.03271174803376198,
        -0.03184092044830322,
        0.007016656920313835,
        -0.02287459373474121,
        -0.02883198857307434,
        0.015418445691466331,
        0.020406147465109825,
        -0.013175075873732567,
        -0.0004527294368017465,
        0.007727088872343302,
        -0.0020910457242280245,
        0.032081592828035355,
        -0.006735023111104965,
        0.006626820657402277,
        0.016422787681221962,
        0.014031934551894665,
        0.12399075925350189,
        0.10766712576150894,
        0.08392138034105301,
        0.021301036700606346,
        -0.024555332958698273,
        -0.14344929158687592,
        -0.15681777894496918,
        0.0994216650724411,
        0.17511647939682007,
        0.10615895688533783,
        0.09668389707803726,
        -0.012443376705050468,
        -0.10535658895969391,
        -0.14820235967636108,
        0.04485303908586502,
        0.1103968620300293,
        -0.0843849629163742,
        0.10377533733844757,
        -0.11895814538002014,
        -0.15882503986358643,
        0.12554052472114563,
        -0.10137150436639786,
        0.18425017595291138,
        0.1139904335141182,
        -0.2178100347518921,
        0.13046354055404663,
        0.016605308279395103,
        0.17953352630138397,
        -0.08291337639093399,
        -0.14766842126846313,
        -0.1557747721672058,
        0.037341129034757614,
        -0.1381259560585022,
        -0.0007595852366648614,
        -0.17655549943447113,
        -0.20618368685245514,
        0.2091728299856186,
        0.14823392033576965,
        0.20477785170078278,
        0.08231747895479202,
        -0.017628537490963936,
        0.013079887256026268,
        -0.11033067107200623,
        -0.026560772210359573,
        -0.135647714138031,
        -0.053412582725286484,
        -0.04463956132531166,
        -0.030761035159230232,
        0.12062916904687881,
        -0.0964818224310875,
        -0.13746711611747742,
        0.1427762806415558,
        0.2856307029724121,
        -0.04657888785004616,
        0.01593104563653469,
        -0.0902891457080841,
        -0.039315465837717056,
        0.14869408309459686,
        0.1232171282172203,
        -0.09702401608228683,
        0.03225770965218544,
        0.007155264262109995,
        -0.02446802519261837,
        0.0018445664318278432,
        -0.02619357407093048,
        -0.009743980132043362,
        0.01909191720187664,
        7.698859553784132e-05,
        0.020908039063215256,
        0.01608343794941902,
        -0.013333296403288841,
        0.029154635965824127,
        -0.010196154937148094,
        -0.07102160900831223,
        -0.019177181646227837,
        -0.03457903116941452,
        -0.031699128448963165,
        0.02038995362818241,
        -0.03557310998439789,
        -0.0007821437320671976,
        0.05953934043645859,
        -0.00039939835551194847,
        -0.09880897402763367,
        0.018260184675455093,
        -0.04406119883060455,
        0.04164997115731239,
        -0.01790013164281845,
        -0.02891683019697666,
        -0.00951666384935379,
        0.006372632458806038,
        0.007897865027189255,
        0.009615369141101837,
        0.012007299810647964,
        0.052120015025138855,
        0.01314057968556881,
        0.02216511033475399,
        0.025649407878518105,
        0.027717353776097298,
        -0.021598011255264282,
        0.02430795691907406,
        0.02755582705140114,
        0.050718579441308975,
        -0.05428136885166168,
        -0.014470298774540424,
        -0.044480446726083755,
        0.023583026602864265,
        0.012193530797958374,
        0.023701122030615807,
        -0.001670369296334684,
        0.03358101844787598,
        -0.018168309703469276,
        -0.010246794670820236,
        -0.001241430756635964,
        -0.008986744098365307,
        0.05813872814178467,
        -0.018675994127988815,
        -0.01604975387454033,
        0.0021122244652360678,
        0.04805774986743927,
        -0.007125704549252987,
        -0.01799633726477623,
        0.017477864399552345,
        0.00140334980096668,
        -0.012116723693907261,
        0.006098714657127857,
        0.013279540464282036,
        0.011797268874943256,
        0.0055926465429365635,
        -0.02318553626537323,
        0.02775047905743122,
        0.00454495707526803,
        -0.009544959291815758,
        -0.010424342006444931,
        -0.012371068820357323,
        0.05364161357283592,
        -0.0032369764521718025,
        -0.0003914720145985484,
        -0.02450965717434883,
        0.0035910075530409813,
        0.01248892117291689,
        0.04726274684071541,
        0.013217496685683727,
        0.004395130090415478,
        -0.017839979380369186,
        -0.0028061748016625643,
        -0.003492172108963132,
        -0.005289743654429913,
        0.026824388653039932,
        0.010129907168447971,
        -0.042236603796482086,
        0.029501816257834435,
        0.02466299757361412,
        0.012210987508296967,
        0.03047322668135166,
        0.01757923699915409,
        -0.009113301523029804,
        0.008382046595215797,
        0.009000521153211594,
        -0.005705848801881075,
        -0.0072381747886538506,
        0.020987235009670258,
        0.014353541657328606,
        -0.012345627881586552,
        0.02782498113811016,
        -0.03249359875917435,
        -0.028640223667025566,
        -0.0012215677415952086,
        0.02905889041721821,
        -0.026340302079916,
        0.02034549042582512,
        -0.010484294034540653,
        -0.011133181862533092,
        -0.00020704377675428987,
        0.0273716039955616,
        -0.0031075167935341597,
        0.009800038300454617,
        0.009209317155182362,
        0.02725433185696602,
        -0.021697530522942543,
        -0.023252086713910103,
        -0.008181806653738022,
        0.04571082070469856,
        0.01873832382261753,
        -0.03966977447271347,
        0.027529044076800346,
        -0.02830658107995987,
        -0.04769344627857208,
        -0.036168862134218216,
        -0.035224393010139465,
        -0.0408058725297451,
        -0.013781384564936161,
        0.023285001516342163,
        0.024154910817742348,
        0.0011866963468492031,
        0.03033333644270897,
        0.0031627770513296127,
        0.014234142377972603,
        0.046018678694963455,
        -0.0018074092222377658,
        -0.0366489477455616,
        -0.008465724997222424,
        0.02989097870886326,
        0.0406557098031044,
        -0.029225412756204605,
        -0.0019728210754692554,
        -0.014667512848973274,
        0.043197836726903915,
        0.033392298966646194,
        0.01876848004758358,
        -0.031340040266513824,
        0.026084713637828827,
        0.017059866338968277,
        -0.012921655550599098,
        -0.014227421022951603,
        -0.025795476511120796,
        -0.012417515739798546,
        -0.006852859165519476,
        -0.0028726751916110516,
        -0.009339569136500359,
        -0.027035243809223175,
        0.015573198907077312,
        -0.00949002057313919,
        0.013927356339991093,
        -0.04914672300219536,
        0.012122580781579018,
        -0.02151818759739399,
        -0.008644185960292816,
        0.07134003937244415,
        0.008474261499941349,
        0.032122790813446045,
        0.009685712866485119,
        0.009366911835968494,
        -0.001385450828820467,
        0.053124845027923584,
        0.038272153586149216,
        0.048149291425943375,
        -0.011035583913326263,
        -0.009136165492236614,
        -0.0283683892339468,
        -0.00917643029242754,
        -0.01291273906826973,
        0.005628735292702913,
        0.012509714812040329,
        0.04339426010847092,
        0.0036799530498683453,
        0.006525339558720589,
        0.0030066492035984993,
        -0.015139315277338028,
        0.001909926300868392,
        0.02078746259212494,
        0.04110364243388176,
        0.03714929521083832,
        -0.02079484984278679,
        0.0011299727484583855,
        0.01412327028810978,
        -0.003303911304101348,
        0.0009040396544151008,
        -0.036582935601472855,
        0.046664465218782425,
        -0.03410997986793518,
        0.026233484968543053,
        -0.018023639917373657,
        0.06700221449136734,
        0.038521215319633484,
        -0.022156378254294395,
        -0.03651878610253334,
        -0.019266806542873383,
        0.04699554294347763,
        -0.0414450503885746,
        -0.003930039703845978,
        -0.00776245491579175,
        -0.006134571973234415,
        0.012640169821679592,
        -0.01372046209871769,
        0.0008973880903795362,
        -0.012251248583197594,
        -0.05114046111702919,
        0.025688190013170242,
        -0.024708671495318413,
        0.005055328365415335,
        0.0345221571624279,
        0.029303070157766342,
        -0.024473557248711586,
        0.01912788301706314,
        -0.01486961729824543,
        -0.007818996906280518,
        -0.007953763008117676,
        0.015104642137885094,
        -0.06167231500148773,
        -0.025972936302423477,
        -0.0043658544309437275,
        0.028739480301737785,
        -0.0011606804328039289,
        -0.008541697636246681,
        -0.025038160383701324,
        -0.0031530882697552443,
        -0.00585433142259717,
        -0.011685283854603767,
        0.008509400300681591,
        -0.03182637691497803,
        0.009800521656870842,
        0.01011029165238142,
        -0.01534591056406498,
        -0.023272205144166946,
        0.006192277185618877,
        0.0019515856401994824,
        -0.021486615762114525,
        -0.012662334367632866,
        0.0272153839468956,
        -0.0005563935847021639,
        -0.020954212173819542,
        -0.03398910164833069,
        -0.009907655417919159,
        -0.012146237306296825,
        0.032979659736156464,
        0.015434630215168,
        -0.041328396648168564,
        0.0009464988252148032,
        -0.022193579003214836,
        0.014532624743878841,
        0.03589337691664696,
        -0.013844969682395458,
        0.04407632723450661,
        0.026343919336795807,
        0.03177015110850334,
        -0.007588601671159267,
        -0.0017329592956230044,
        0.011896254494786263,
        -0.027140703052282333,
        -0.01572352647781372,
        0.01501388754695654,
        0.016468185931444168,
        -0.018412653356790543,
        0.021088136360049248,
        0.015127312391996384,
        -0.02925318479537964,
        0.010522043332457542,
        0.03815001994371414,
        -0.04750179126858711,
        0.022252662107348442,
        -0.006189058534801006,
        0.022297533228993416,
        0.0020809995476156473,
        -0.014350899495184422,
        -0.0372878834605217,
        0.002327466383576393,
        -0.025229226797819138,
        0.05366537719964981,
        -0.03354291617870331,
        0.013232579454779625,
        0.03294520080089569,
        -0.02299533225595951,
        0.0006826383760198951,
        -0.03675654157996178,
        -0.01816069521009922,
        0.0036942108999937773,
        -0.053337469696998596,
        0.015955280512571335,
        -0.007851547561585903,
        -0.004431785549968481,
        0.015426896512508392,
        -0.007532236631959677,
        -0.020468607544898987,
        0.025403577834367752,
        -0.03222402185201645,
        0.014141924679279327,
        -0.00774807995185256,
        -0.0025550355203449726,
        0.017495570704340935,
        0.005502817686647177,
        -0.035234544426202774,
        0.002311565214768052,
        -0.013253253884613514,
        -0.0035919887013733387,
        0.01300317607820034,
        0.0003926815988961607,
        0.02270674519240856,
        0.0007825368084013462,
        -0.01578146405518055,
        0.002714029047638178,
        -0.010303468443453312,
        0.015469515696167946,
        -0.023209553211927414,
        -0.016004357486963272,
        -0.010058687999844551,
        0.04620129242539406,
        -0.0082814646884799,
        0.0094608124345541,
        0.022227736189961433,
        -0.00022261719277594239,
        0.00492139020934701,
        0.008736729621887207,
        -0.024911480024456978,
        -0.0035713829565793276,
        0.033118460327386856,
        -0.021015066653490067,
        0.029206812381744385,
        0.0003530531539581716,
        0.018083255738019943,
        -0.02280370332300663,
        0.030816035345196724,
        -0.00011769010598072782,
        -0.01429048366844654,
        0.008612544275820255,
        0.011281243525445461,
        -0.014077844098210335,
        -0.024028584361076355,
        0.006941019091755152,
        -0.014837034977972507,
        0.014446860179305077,
        -0.014552261680364609,
        -0.03492920100688934,
        -0.0002005814458243549,
        0.027650440111756325,
        0.002275408012792468,
        -0.020913071930408478,
        0.038894228637218475,
        -0.01789761148393154,
        0.01976960524916649,
        0.008094476535916328,
        0.04511374607682228,
        0.022931210696697235,
        0.1049269363284111,
        -0.07691213488578796,
        0.05900208279490471,
        -0.06566118448972702,
        -0.028897898271679878,
        0.05152997374534607,
        -0.09357237815856934,
        -0.05161658674478531,
        0.15851956605911255,
        0.06458140909671783,
        -0.02819955162703991,
        0.21671698987483978,
        0.035496849566698074,
        0.06863515824079514,
        -0.21455878019332886,
        0.07634013891220093,
        -0.19296030700206757,
        0.03840930014848709,
        -0.009291574358940125,
        -0.09104236960411072,
        -0.0567864328622818,
        0.057981181889772415,
        0.0051957424730062485,
        -0.1540776491165161,
        0.029962247237563133,
        0.23865412175655365,
        -0.1108667403459549,
        0.050076473504304886,
        0.18108437955379486,
        0.0765441358089447,
        -0.10034304112195969,
        0.11198896914720535,
        -0.17287926375865936,
        -0.07958688586950302,
        -0.09260981529951096,
        -0.10072813183069229,
        0.10307423770427704,
        0.1255081444978714,
        -0.1439146101474762,
        -0.10663944482803345,
        -0.21636250615119934,
        0.160890132188797,
        -0.1764092594385147,
        0.006318868137896061,
        -0.18054160475730896,
        0.17823198437690735,
        0.05138392746448517,
        0.04901357367634773,
        0.04961676523089409,
        0.1993020623922348,
        -0.32046136260032654,
        -0.0598849318921566,
        0.15372519195079803,
        0.018391849473118782,
        -0.06550388038158417,
        0.1504218429327011,
        -0.001123852445743978,
        0.08269644528627396
      ]
    },
    {
      "activation": "linear",
      "architecture": "dense",
      "bias": [
        3.5418553352355957
      ],
      "weights": [
        0.024185650050640106,
        -0.010823356918990612,
        0.0031423214823007584,
        -0.05376789718866348,
        -0.0661529079079628,
        0.0023531881161034107,
        0.004817435052245855,
        -0.026305824518203735,
        0.031636327505111694,
        -0.025835661217570305,
        0.1393236666917801,
        0.03363104164600372,
        -0.00151139369700104,
        0.035083796828985214,
        0.014025491662323475,
        -0.03533551096916199,
        -0.03677063807845116,
        0.16549192368984222,
        -0.040813155472278595,
        -0.04011579602956772,
        0.06398360431194305,
        0.042736344039440155,
        -0.03906869888305664,
        0.026506878435611725,
        0.047086089849472046,
        -0.001556377625092864,
        -0.023156413808465004,
        -0.04514589533209801,
        0.014473959803581238,
        -0.012656119652092457,
        0.04027556627988815,
        0.0037513880524784327,
        -0.04910610616207123,
        0.02109788917005062,
        0.0480608306825161,
        -0.013936991803348064,
        -0.004107746295630932,
        0.05530571565032005,
        -0.07929185032844543,
        -0.04786139354109764,
        -0.027238687500357628,
        0.19752340018749237,
        0.0032113592606037855,
        0.0005377401248551905,
        -0.05797639489173889,
        0.09308396279811859,
        -0.07448972761631012,
        -0.07885923236608505,
        0.07398449629545212,
        0.030114782974123955,
        -0.06482172012329102,
        0.006419697310775518,
        0.16956190764904022,
        0.018877729773521423,
        0.0003626523248385638,
        0.022836677730083466,
        0.024217527359724045,
        -0.011425789445638657,
        0.003693058853968978,
        -0.1677408367395401
      ]
    }
  ],
  "nodes": [
    {
      "layer_index": 0,
      "sources": [
        4
      ],
      "type": "feed_forward"
    },
    {
      "layer_index": 1,
      "sources": [
        0
      ],
      "type": "feed_forward"
    },
    {
      "layer_index": 2,
      "sources": [
        1
      ],
      "type": "feed_forward"
    },
    {
      "layer_index": 3,
      "sources": [
        2
      ],
      "type": "feed_forward"
    },
    {
      "size": 12,
      "sources": [
        0
      ],
      "type": "input"
    }
  ],
  "outputs": {
    "dense_62_0": {
      "labels": [
        "out_0"
      ],
      "node_index": 3
    }
  }
}
